{
  "target_vocab_size": 2000,
  "unk_token": "<unk>",
  "special_tokens": [
    "<unk>"
  ],
  "merges": [
    [
      "▁",
      "t"
    ],
    [
      "o",
      "u"
    ],
    [
      "▁",
      "a"
    ],
    [
      "▁t",
      "h"
    ],
    [
      "i",
      "n"
    ],
    [
      "▁",
      "s"
    ],
    [
      "▁",
      "w"
    ],
    [
      "r",
      "e"
    ],
    [
      "▁",
      "I"
    ],
    [
      "e",
      "n"
    ],
    [
      "▁",
      "y"
    ],
    [
      "a",
      "t"
    ],
    [
      "▁y",
      "ou"
    ],
    [
      "o",
      "n"
    ],
    [
      "e",
      "r"
    ],
    [
      "▁",
      "m"
    ],
    [
      "▁t",
      "o"
    ],
    [
      "▁th",
      "e"
    ],
    [
      "l",
      "l"
    ],
    [
      "▁",
      "h"
    ],
    [
      "▁",
      "b"
    ],
    [
      "i",
      "t"
    ],
    [
      "a",
      "n"
    ],
    [
      "in",
      "g"
    ],
    [
      "▁",
      "c"
    ],
    [
      "▁",
      "f"
    ],
    [
      "▁",
      "p"
    ],
    [
      "o",
      "r"
    ],
    [
      "▁",
      "d"
    ],
    [
      "a",
      "s"
    ],
    [
      "e",
      "s"
    ],
    [
      "a",
      "r"
    ],
    [
      "i",
      "s"
    ],
    [
      "▁",
      "o"
    ],
    [
      "e",
      "d"
    ],
    [
      "▁",
      "g"
    ],
    [
      "▁b",
      "e"
    ],
    [
      "v",
      "e"
    ],
    [
      "'",
      "s"
    ],
    [
      "▁",
      "l"
    ],
    [
      "▁o",
      "f"
    ],
    [
      "'",
      "t"
    ],
    [
      "o",
      "m"
    ],
    [
      "▁",
      "T"
    ],
    [
      ".",
      "."
    ],
    [
      "▁",
      "Y"
    ],
    [
      "▁I",
      "'"
    ],
    [
      "▁",
      "A"
    ],
    [
      "en",
      "t"
    ],
    [
      "o",
      "w"
    ],
    [
      "▁",
      "W"
    ],
    [
      "▁",
      "n"
    ],
    [
      "e",
      "t"
    ],
    [
      "▁a",
      "n"
    ],
    [
      "i",
      "d"
    ],
    [
      "o",
      "t"
    ],
    [
      "a",
      "l"
    ],
    [
      "▁s",
      "t"
    ],
    [
      "▁th",
      "at"
    ],
    [
      "▁",
      "in"
    ],
    [
      "▁",
      "u"
    ],
    [
      "▁",
      "e"
    ],
    [
      "s",
      "t"
    ],
    [
      "▁",
      "H"
    ],
    [
      "▁m",
      "e"
    ],
    [
      "▁T",
      "h"
    ],
    [
      "a",
      "y"
    ],
    [
      "▁Y",
      "ou"
    ],
    [
      "g",
      "h"
    ],
    [
      "▁",
      "S"
    ],
    [
      "l",
      "d"
    ],
    [
      "▁",
      "it"
    ],
    [
      "u",
      "t"
    ],
    [
      "it",
      "h"
    ],
    [
      "▁w",
      "e"
    ],
    [
      "▁f",
      "or"
    ],
    [
      "e",
      "."
    ],
    [
      "▁",
      "on"
    ],
    [
      "▁w",
      "ith"
    ],
    [
      "as",
      "s"
    ],
    [
      "u",
      "d"
    ],
    [
      "i",
      "r"
    ],
    [
      "▁h",
      "e"
    ],
    [
      "c",
      "h"
    ],
    [
      "▁w",
      "h"
    ],
    [
      "l",
      "ass"
    ],
    [
      "▁",
      "re"
    ],
    [
      "l",
      "e"
    ],
    [
      "k",
      "e"
    ],
    [
      "a",
      "d"
    ],
    [
      "o",
      "s"
    ],
    [
      "ou",
      "t"
    ],
    [
      "i",
      "on"
    ],
    [
      "i",
      "ll"
    ],
    [
      "▁W",
      "h"
    ],
    [
      "ou",
      "ld"
    ],
    [
      "▁",
      "r"
    ],
    [
      "u",
      "n"
    ],
    [
      "▁",
      "is"
    ],
    [
      "e",
      "c"
    ],
    [
      "..",
      "."
    ],
    [
      "ar",
      "t"
    ],
    [
      "o",
      "k"
    ],
    [
      "gh",
      "t"
    ],
    [
      "▁I'",
      "m"
    ],
    [
      "▁h",
      "a"
    ],
    [
      "▁you",
      "r"
    ],
    [
      "n",
      "'t"
    ],
    [
      "i",
      "c"
    ],
    [
      "'",
      "re"
    ],
    [
      "i",
      "m"
    ],
    [
      "▁",
      "C"
    ],
    [
      "on",
      "'t"
    ],
    [
      "▁an",
      "d"
    ],
    [
      "▁st",
      "ud"
    ],
    [
      "▁",
      "B"
    ],
    [
      "i",
      "ght"
    ],
    [
      "▁s",
      "e"
    ],
    [
      "▁a",
      "s"
    ],
    [
      "es",
      "t"
    ],
    [
      "▁e",
      "x"
    ],
    [
      "l",
      "y"
    ],
    [
      "i",
      "f"
    ],
    [
      "c",
      "e"
    ],
    [
      "e",
      "ar"
    ],
    [
      "▁u",
      "p"
    ],
    [
      "▁stud",
      "ent"
    ],
    [
      "▁th",
      "is"
    ],
    [
      "s",
      "."
    ],
    [
      "▁m",
      "y"
    ],
    [
      "n",
      "d"
    ],
    [
      "u",
      "st"
    ],
    [
      "a",
      "ll"
    ],
    [
      "om",
      "e"
    ],
    [
      "▁a",
      "b"
    ],
    [
      "▁p",
      "art"
    ],
    [
      "▁",
      "k"
    ],
    [
      "e",
      "m"
    ],
    [
      "an",
      "t"
    ],
    [
      "o",
      "re"
    ],
    [
      "▁Th",
      "e"
    ],
    [
      "e",
      "ll"
    ],
    [
      "-",
      "k"
    ],
    [
      "-k",
      "un"
    ],
    [
      "▁d",
      "o"
    ],
    [
      "▁a",
      "ll"
    ],
    [
      "▁s",
      "u"
    ],
    [
      "▁c",
      "lass"
    ],
    [
      "▁",
      "j"
    ],
    [
      "ou",
      "r"
    ],
    [
      "▁a",
      "t"
    ],
    [
      "▁w",
      "ill"
    ],
    [
      "in",
      "k"
    ],
    [
      "s",
      "e"
    ],
    [
      "a",
      "k"
    ],
    [
      "▁I'",
      "ll"
    ],
    [
      "▁",
      "N"
    ],
    [
      "o",
      "l"
    ],
    [
      "a",
      "c"
    ],
    [
      "▁n",
      "ot"
    ],
    [
      "a",
      "m"
    ],
    [
      "v",
      "er"
    ],
    [
      "▁ha",
      "ve"
    ],
    [
      "p",
      "p"
    ],
    [
      "▁g",
      "o"
    ],
    [
      "▁th",
      "ink"
    ],
    [
      "▁n",
      "e"
    ],
    [
      "▁g",
      "et"
    ],
    [
      "▁ex",
      "p"
    ],
    [
      "▁Wh",
      "at"
    ],
    [
      "n",
      "er"
    ],
    [
      "▁I",
      "t"
    ],
    [
      "▁B",
      "ut"
    ],
    [
      "p",
      "a"
    ],
    [
      "▁a",
      "re"
    ],
    [
      "▁s",
      "h"
    ],
    [
      "▁c",
      "an"
    ],
    [
      "h",
      "er"
    ],
    [
      "r",
      "o"
    ],
    [
      "▁part",
      "ner"
    ],
    [
      "▁Th",
      "at"
    ],
    [
      "▁d",
      "id"
    ],
    [
      "t",
      "er"
    ],
    [
      "-",
      "s"
    ],
    [
      "at",
      "e"
    ],
    [
      "u",
      "r"
    ],
    [
      "▁w",
      "as"
    ],
    [
      "j",
      "i"
    ],
    [
      "v",
      "en"
    ],
    [
      "▁l",
      "i"
    ],
    [
      "▁d",
      "on't"
    ],
    [
      "os",
      "en"
    ],
    [
      "▁t",
      "r"
    ],
    [
      "ok",
      "o"
    ],
    [
      "▁f",
      "r"
    ],
    [
      "ir",
      "st"
    ],
    [
      "▁k",
      "n"
    ],
    [
      "▁",
      "R"
    ],
    [
      "▁H",
      "osen"
    ],
    [
      "▁ab",
      "out"
    ],
    [
      "▁A",
      "y"
    ],
    [
      "an",
      "oko"
    ],
    [
      "anoko",
      "ji"
    ],
    [
      "all",
      "y"
    ],
    [
      "on",
      "e"
    ],
    [
      "i",
      "l"
    ],
    [
      "▁Ay",
      "anokoji"
    ],
    [
      "▁f",
      "irst"
    ],
    [
      "▁",
      "out"
    ],
    [
      "▁C",
      "lass"
    ],
    [
      "a",
      "ke"
    ],
    [
      "▁w",
      "or"
    ],
    [
      "▁w",
      "ould"
    ],
    [
      "at",
      "ion"
    ],
    [
      "▁",
      "D"
    ],
    [
      "-",
      "y"
    ],
    [
      "en",
      "d"
    ],
    [
      "▁w",
      "ant"
    ],
    [
      "es",
      "."
    ],
    [
      "▁s",
      "o"
    ],
    [
      "-y",
      "ear"
    ],
    [
      "▁",
      "if"
    ],
    [
      "y",
      "."
    ],
    [
      "▁j",
      "ust"
    ],
    [
      "o",
      "ok"
    ],
    [
      "▁",
      "O"
    ],
    [
      "▁an",
      "y"
    ],
    [
      "ar",
      "d"
    ],
    [
      "▁I",
      "f"
    ],
    [
      "a",
      "g"
    ],
    [
      "en",
      "pa"
    ],
    [
      "enpa",
      "i"
    ],
    [
      "▁",
      "our"
    ],
    [
      "ing",
      "."
    ],
    [
      "u",
      "l"
    ],
    [
      "▁li",
      "ke"
    ],
    [
      "▁t",
      "est"
    ],
    [
      "q",
      "u"
    ],
    [
      "a",
      "in"
    ],
    [
      "▁s",
      "p"
    ],
    [
      "▁b",
      "ut"
    ],
    [
      "▁wh",
      "at"
    ],
    [
      "▁r",
      "ight"
    ],
    [
      "ed",
      "."
    ],
    [
      "▁of",
      "f"
    ],
    [
      "s",
      ","
    ],
    [
      "e",
      "a"
    ],
    [
      "ec",
      "t"
    ],
    [
      "▁W",
      "e"
    ],
    [
      "in",
      "d"
    ],
    [
      "▁fr",
      "om"
    ],
    [
      "▁",
      "K"
    ],
    [
      "▁n",
      "ow"
    ],
    [
      "an",
      "d"
    ],
    [
      "▁a",
      "c"
    ],
    [
      "e",
      ","
    ],
    [
      "▁That",
      "'s"
    ],
    [
      "▁you",
      "'re"
    ],
    [
      "▁did",
      "n't"
    ],
    [
      "▁s",
      "ome"
    ],
    [
      "▁H",
      "e"
    ],
    [
      "i",
      "e"
    ],
    [
      "▁c",
      "on"
    ],
    [
      "▁first",
      "-year"
    ],
    [
      "'",
      "ll"
    ],
    [
      "▁he",
      "re"
    ],
    [
      "i",
      "ve"
    ],
    [
      "o",
      "p"
    ],
    [
      "▁p",
      "re"
    ],
    [
      "▁c",
      "h"
    ],
    [
      "o",
      "ol"
    ],
    [
      "i",
      "al"
    ],
    [
      "▁we",
      "re"
    ],
    [
      "▁wh",
      "o"
    ],
    [
      "m",
      "ent"
    ],
    [
      "h",
      ","
    ],
    [
      "▁kn",
      "ow"
    ],
    [
      "▁the",
      "re"
    ],
    [
      "▁",
      "M"
    ],
    [
      "it",
      "e"
    ],
    [
      "▁u",
      "s"
    ],
    [
      "t",
      "h"
    ],
    [
      "-s",
      "enpai"
    ],
    [
      "▁th",
      "en"
    ],
    [
      "or",
      "r"
    ],
    [
      "t",
      "y"
    ],
    [
      "▁s",
      "c"
    ],
    [
      "ou",
      "n"
    ],
    [
      "▁p",
      "ro"
    ],
    [
      "▁You",
      "'re"
    ],
    [
      "▁student",
      "s"
    ],
    [
      "i",
      "z"
    ],
    [
      "re",
      "d"
    ],
    [
      "ou",
      "gh"
    ],
    [
      "▁the",
      "y"
    ],
    [
      "▁c",
      "om"
    ],
    [
      "▁I'",
      "ve"
    ],
    [
      "▁A",
      "nd"
    ],
    [
      "▁you",
      "."
    ],
    [
      "i",
      "k"
    ],
    [
      "▁",
      "L"
    ],
    [
      "on",
      "g"
    ],
    [
      "i",
      "v"
    ],
    [
      "▁se",
      "e"
    ],
    [
      "▁on",
      "e"
    ],
    [
      "▁m",
      "ore"
    ],
    [
      "ac",
      "t"
    ],
    [
      "▁Hosen",
      "-kun"
    ],
    [
      "▁h",
      "ow"
    ],
    [
      "?",
      "!"
    ],
    [
      "▁u",
      "n"
    ],
    [
      "▁wor",
      "k"
    ],
    [
      "▁",
      "P"
    ],
    [
      "'",
      "d"
    ],
    [
      "os",
      "e"
    ],
    [
      "▁h",
      "im"
    ],
    [
      "▁p",
      "er"
    ],
    [
      "al",
      "k"
    ],
    [
      "▁in",
      "t"
    ],
    [
      "▁w",
      "ay"
    ],
    [
      "▁w",
      "on't"
    ],
    [
      "▁It",
      "'s"
    ],
    [
      "▁a",
      "l"
    ],
    [
      "▁s",
      "ch"
    ],
    [
      "u",
      "m"
    ],
    [
      "▁p",
      "l"
    ],
    [
      "u",
      "s"
    ],
    [
      "▁t",
      "im"
    ],
    [
      "it",
      "a"
    ],
    [
      "es",
      "s"
    ],
    [
      "b",
      "le"
    ],
    [
      "▁sh",
      "ould"
    ],
    [
      "y",
      ","
    ],
    [
      "▁exp",
      "ell"
    ],
    [
      "i",
      "g"
    ],
    [
      "▁sch",
      "ool"
    ],
    [
      "▁",
      "im"
    ],
    [
      "▁e",
      "ven"
    ],
    [
      "▁S",
      "o"
    ],
    [
      "'",
      "ve"
    ],
    [
      "ie",
      "ve"
    ],
    [
      "an",
      "ce"
    ],
    [
      "▁be",
      "t"
    ],
    [
      "▁H",
      "or"
    ],
    [
      "▁Hor",
      "ik"
    ],
    [
      "▁Horik",
      "ita"
    ],
    [
      "▁as",
      "k"
    ],
    [
      "▁the",
      "m"
    ],
    [
      "▁th",
      "an"
    ],
    [
      "o",
      "d"
    ],
    [
      "▁go",
      "ing"
    ],
    [
      "▁g",
      "ot"
    ],
    [
      "▁m",
      "ake"
    ],
    [
      "▁it",
      "'s"
    ],
    [
      "a",
      "w"
    ],
    [
      "▁d",
      "e"
    ],
    [
      "▁b",
      "r"
    ],
    [
      "▁y",
      "ear"
    ],
    [
      "▁me",
      "an"
    ],
    [
      "o",
      "in"
    ],
    [
      "ac",
      "k"
    ],
    [
      "▁",
      "en"
    ],
    [
      "▁se",
      "em"
    ],
    [
      "ou",
      "s"
    ],
    [
      "▁su",
      "re"
    ],
    [
      "▁b",
      "y"
    ],
    [
      "am",
      "e"
    ],
    [
      "ec",
      "ial"
    ],
    [
      "▁t",
      "alk"
    ],
    [
      "▁it",
      "."
    ],
    [
      "▁a",
      "g"
    ],
    [
      "o",
      "om"
    ],
    [
      "et",
      "'s"
    ],
    [
      "0",
      "0"
    ],
    [
      "▁g",
      "r"
    ],
    [
      "▁off",
      "er"
    ],
    [
      "ver",
      "y"
    ],
    [
      "▁l",
      "ook"
    ],
    [
      "▁a",
      "f"
    ],
    [
      "▁W",
      "ell"
    ],
    [
      "ou",
      "nd"
    ],
    [
      "▁",
      "F"
    ],
    [
      "et",
      "h"
    ],
    [
      "▁a",
      "pp"
    ],
    [
      "▁sc",
      "ore"
    ],
    [
      "▁h",
      "er"
    ],
    [
      "▁sp",
      "ecial"
    ],
    [
      "▁c",
      "oun"
    ],
    [
      "▁h",
      "as"
    ],
    [
      "▁that",
      "."
    ],
    [
      "▁S",
      "h"
    ],
    [
      "▁",
      "E"
    ],
    [
      "▁l",
      "e"
    ],
    [
      "e",
      "l"
    ],
    [
      "es",
      ","
    ],
    [
      "▁",
      "G"
    ],
    [
      "▁Wh",
      "ite"
    ],
    [
      "▁R",
      "oom"
    ],
    [
      "▁s",
      "ay"
    ],
    [
      "▁re",
      "ally"
    ],
    [
      "▁",
      "qu"
    ],
    [
      "ed",
      ","
    ],
    [
      "nd",
      "er"
    ],
    [
      "▁S",
      "ud"
    ],
    [
      "▁Sud",
      "o"
    ],
    [
      "ow",
      "n"
    ],
    [
      "▁some",
      "one"
    ],
    [
      "t",
      "ing"
    ],
    [
      "▁Y",
      "es."
    ],
    [
      "▁ne",
      "ed"
    ],
    [
      "a",
      "ir"
    ],
    [
      "i",
      "p"
    ],
    [
      "▁th",
      "ing"
    ],
    [
      "▁o",
      "t"
    ],
    [
      "▁ot",
      "her"
    ],
    [
      "▁you",
      "?"
    ],
    [
      "▁c",
      "ome"
    ],
    [
      "an",
      "g"
    ],
    [
      "ion",
      "."
    ],
    [
      "u",
      "re"
    ],
    [
      "ad",
      "em"
    ],
    [
      "adem",
      "ic"
    ],
    [
      "▁H",
      "ow"
    ],
    [
      "▁first-year",
      "s"
    ],
    [
      "-s",
      "an"
    ],
    [
      "▁im",
      "p"
    ],
    [
      "s",
      "h"
    ],
    [
      "▁I'",
      "d"
    ],
    [
      "▁r",
      "at"
    ],
    [
      "▁he",
      "l"
    ],
    [
      "▁hel",
      "p"
    ],
    [
      "as",
      "t"
    ],
    [
      "id",
      "e"
    ],
    [
      "n",
      "a"
    ],
    [
      "▁m",
      "o"
    ],
    [
      "se",
      "l"
    ],
    [
      "▁The",
      "re"
    ],
    [
      "▁right",
      "?"
    ],
    [
      "▁L",
      "et's"
    ],
    [
      "▁s",
      "ec"
    ],
    [
      "on",
      "d"
    ],
    [
      "▁",
      "or"
    ],
    [
      "▁u",
      "nder"
    ],
    [
      "▁c",
      "ook"
    ],
    [
      "▁on",
      "ly"
    ],
    [
      "▁Ayanokoji",
      "-senpai"
    ],
    [
      "▁N",
      "an"
    ],
    [
      "▁Nan",
      "as"
    ],
    [
      "e",
      "re"
    ],
    [
      "▁m",
      "ad"
    ],
    [
      "▁now",
      "."
    ],
    [
      "▁Y",
      "ea"
    ],
    [
      "▁wh",
      "y"
    ],
    [
      "a",
      "id"
    ],
    [
      "▁st",
      "art"
    ],
    [
      "p",
      "t"
    ],
    [
      "▁s",
      "om"
    ],
    [
      "▁me",
      "."
    ],
    [
      "or",
      "t"
    ],
    [
      "v",
      "ing"
    ],
    [
      "▁to",
      "o"
    ],
    [
      "g",
      "et"
    ],
    [
      "▁A",
      "c"
    ],
    [
      "aw",
      "a"
    ],
    [
      "▁m",
      "ay"
    ],
    [
      "s",
      "u"
    ],
    [
      "▁st",
      "r"
    ],
    [
      "▁coun",
      "c"
    ],
    [
      "▁counc",
      "il"
    ],
    [
      "e",
      "p"
    ],
    [
      "▁d",
      "is"
    ],
    [
      "a",
      "re"
    ],
    [
      "h",
      "?"
    ],
    [
      "▁be",
      "en"
    ],
    [
      "ch",
      "ieve"
    ],
    [
      "▁n",
      "o"
    ],
    [
      "▁som",
      "eth"
    ],
    [
      "▁re",
      "s"
    ],
    [
      "w",
      "ard"
    ],
    [
      "▁",
      "1"
    ],
    [
      "▁c",
      "ould"
    ],
    [
      "i",
      "y"
    ],
    [
      "▁d",
      "own"
    ],
    [
      "▁p",
      "r"
    ],
    [
      "u",
      "z"
    ],
    [
      "uz",
      "un"
    ],
    [
      "▁h",
      "is"
    ],
    [
      "▁p",
      "air"
    ],
    [
      "u",
      "se"
    ],
    [
      "▁we",
      "ll"
    ],
    [
      "▁se",
      "e."
    ],
    [
      "▁b",
      "ack"
    ],
    [
      "▁s",
      "orr"
    ],
    [
      "▁seem",
      "s"
    ],
    [
      "er",
      "."
    ],
    [
      "▁you",
      ","
    ],
    [
      "▁N",
      "o"
    ],
    [
      "chieve",
      "ment"
    ],
    [
      "▁O",
      "h,"
    ],
    [
      "ot",
      "her"
    ],
    [
      "e",
      "?"
    ],
    [
      "▁f",
      "ind"
    ],
    [
      "a",
      "ch"
    ],
    [
      "s",
      "id"
    ],
    [
      "▁ac",
      "t"
    ],
    [
      "▁",
      "end"
    ],
    [
      "▁f",
      "e"
    ],
    [
      "▁at",
      "t"
    ],
    [
      "▁the",
      "ir"
    ],
    [
      "u",
      "ation"
    ],
    [
      "▁t",
      "ake"
    ],
    [
      "ou",
      "ght"
    ],
    [
      "▁any",
      "th"
    ],
    [
      "▁",
      "ke"
    ],
    [
      "▁then",
      "?"
    ],
    [
      "g",
      "ot"
    ],
    [
      "▁",
      "very"
    ],
    [
      "▁I",
      "n"
    ],
    [
      "▁af",
      "ter"
    ],
    [
      "▁it",
      "?"
    ],
    [
      "▁exp",
      "ect"
    ],
    [
      "t",
      "ty"
    ],
    [
      "▁ha",
      "ven"
    ],
    [
      "▁haven",
      "'t"
    ],
    [
      "at",
      "ed"
    ],
    [
      "▁wh",
      "en"
    ],
    [
      "▁someth",
      "ing"
    ],
    [
      "▁tr",
      "y"
    ],
    [
      "▁com",
      "p"
    ],
    [
      "i",
      "ous"
    ],
    [
      "▁m",
      "u"
    ],
    [
      "▁mu",
      "ch"
    ],
    [
      "▁you",
      "'ll"
    ],
    [
      "▁g",
      "u"
    ],
    [
      "▁bet",
      "ter"
    ],
    [
      "▁a",
      "r"
    ],
    [
      "▁He",
      "y,"
    ],
    [
      "▁Ac",
      "ademic"
    ],
    [
      "▁A",
      "chievement"
    ],
    [
      "▁be",
      "f"
    ],
    [
      "▁bef",
      "ore"
    ],
    [
      "▁f",
      "in"
    ],
    [
      "an",
      "k"
    ],
    [
      "it",
      "t"
    ],
    [
      "▁o",
      "ver"
    ],
    [
      "▁Ayanokoji",
      "-kun"
    ],
    [
      "▁c",
      "our"
    ],
    [
      "▁do",
      "es"
    ],
    [
      "▁S",
      "uzun"
    ],
    [
      "▁f",
      "ight"
    ],
    [
      "▁would",
      "n't"
    ],
    [
      "o",
      "c"
    ],
    [
      "▁p",
      "ay"
    ],
    [
      "▁ke",
      "ep"
    ],
    [
      "▁well",
      "."
    ],
    [
      "▁per",
      "s"
    ],
    [
      "▁pers",
      "on"
    ],
    [
      "▁me",
      "et"
    ],
    [
      "▁Y",
      "es,"
    ],
    [
      "▁Well",
      ","
    ],
    [
      "▁ha",
      "pp"
    ],
    [
      "▁m",
      "ak"
    ],
    [
      "▁can",
      "'t"
    ],
    [
      "b",
      "l"
    ],
    [
      "d",
      "ay"
    ],
    [
      "▁d",
      "ay"
    ],
    [
      "▁h",
      "and"
    ],
    [
      "er",
      "t"
    ],
    [
      "▁sec",
      "ond"
    ],
    [
      "▁g",
      "ive"
    ],
    [
      "u",
      "ally"
    ],
    [
      "c",
      "om"
    ],
    [
      "▁he",
      "ad"
    ],
    [
      "▁",
      "v"
    ],
    [
      "▁kn",
      "if"
    ],
    [
      "e",
      "en"
    ],
    [
      "▁R",
      "y"
    ],
    [
      "▁Ry",
      "u"
    ],
    [
      "▁Ryu",
      "en"
    ],
    [
      "▁f",
      "a"
    ],
    [
      "oin",
      "t"
    ],
    [
      "▁tr",
      "ust"
    ],
    [
      "▁ne",
      "got"
    ],
    [
      "▁negot",
      "i"
    ],
    [
      "▁tim",
      "e"
    ],
    [
      "▁that",
      "'s"
    ],
    [
      "▁s",
      "aid"
    ],
    [
      "▁pre",
      "tty"
    ],
    [
      "▁a",
      "m"
    ],
    [
      "▁Wh",
      "y"
    ],
    [
      "▁I",
      "s"
    ],
    [
      "▁o",
      "w"
    ],
    [
      "▁be",
      "ing"
    ],
    [
      "▁pl",
      "an"
    ],
    [
      "▁that",
      "?"
    ],
    [
      "iz",
      "e"
    ],
    [
      "is",
      "t"
    ],
    [
      "▁h",
      "ard"
    ],
    [
      "▁re",
      "al"
    ],
    [
      "▁here",
      "."
    ],
    [
      "▁Sh",
      "e"
    ],
    [
      "▁sh",
      "e"
    ],
    [
      "▁",
      "U"
    ],
    [
      "re",
      "at"
    ],
    [
      "▁test",
      "."
    ],
    [
      "i",
      "gh"
    ],
    [
      "▁th",
      "r"
    ],
    [
      "is",
      "h"
    ],
    [
      "▁expell",
      "ed"
    ],
    [
      "c",
      "t"
    ],
    [
      "▁l",
      "et"
    ],
    [
      "▁p",
      "e"
    ],
    [
      "▁pe",
      "op"
    ],
    [
      "▁peop",
      "le"
    ],
    [
      "▁be",
      "c"
    ],
    [
      "f",
      "f"
    ],
    [
      "f",
      "ul"
    ],
    [
      "▁p",
      "oint"
    ],
    [
      "a",
      "."
    ],
    [
      "▁Nanas",
      "e"
    ],
    [
      "▁re",
      "f"
    ],
    [
      "▁me",
      "?"
    ],
    [
      "▁rat",
      "her"
    ],
    [
      "▁con",
      "t"
    ],
    [
      "▁mad",
      "e"
    ],
    [
      "▁en",
      "ough"
    ],
    [
      "er",
      "m"
    ],
    [
      "in",
      "ce"
    ],
    [
      "ur",
      "n"
    ],
    [
      "u",
      "h?"
    ],
    [
      "i",
      "es"
    ],
    [
      "i",
      "end"
    ],
    [
      "▁a",
      "p"
    ],
    [
      "▁m",
      "at"
    ],
    [
      "▁",
      "id"
    ],
    [
      "▁ow",
      "n"
    ],
    [
      "p",
      "er"
    ],
    [
      "▁1",
      "-"
    ],
    [
      "f",
      "ect"
    ],
    [
      "w",
      "o"
    ],
    [
      "▁l",
      "ot"
    ],
    [
      "▁T",
      "o"
    ],
    [
      "▁S",
      "enpai"
    ],
    [
      "en",
      "ce"
    ],
    [
      "▁Th",
      "is"
    ],
    [
      "▁s",
      "k"
    ],
    [
      "▁d",
      "ec"
    ],
    [
      "sel",
      "f"
    ],
    [
      "▁m",
      "in"
    ],
    [
      "▁",
      "2"
    ],
    [
      "at",
      "ing"
    ],
    [
      "▁l",
      "o"
    ],
    [
      "▁a",
      "d"
    ],
    [
      "re",
      "n"
    ],
    [
      "ic",
      "ul"
    ],
    [
      "b",
      "er"
    ],
    [
      "▁ag",
      "re"
    ],
    [
      "qu",
      "al"
    ],
    [
      "it",
      "y"
    ],
    [
      "u",
      "al"
    ],
    [
      "sid",
      "ent"
    ],
    [
      "▁N",
      "ag"
    ],
    [
      "▁Nag",
      "um"
    ],
    [
      "▁Nagum",
      "o"
    ],
    [
      "▁th",
      "ought"
    ],
    [
      "▁anyth",
      "ing"
    ],
    [
      "▁class",
      "m"
    ],
    [
      "▁pl",
      "ay"
    ],
    [
      "▁we",
      "'re"
    ],
    [
      "am",
      "n"
    ],
    [
      "x",
      "t"
    ],
    [
      "▁S",
      "orr"
    ],
    [
      "▁Yea",
      "h,"
    ],
    [
      "▁go",
      "od"
    ],
    [
      "▁W",
      "ould"
    ],
    [
      "▁su",
      "pp"
    ],
    [
      "▁happ",
      "en"
    ],
    [
      "▁h",
      "ur"
    ],
    [
      "▁for",
      "ward"
    ],
    [
      "▁p",
      "ut"
    ],
    [
      "▁ag",
      "ain"
    ],
    [
      "it",
      "y."
    ],
    [
      "▁be",
      "l"
    ],
    [
      "▁there",
      "'s"
    ],
    [
      "▁b",
      "as"
    ],
    [
      "▁P",
      "re"
    ],
    [
      "▁There",
      "'s"
    ],
    [
      "ert",
      "ain"
    ],
    [
      "▁then",
      "."
    ],
    [
      "▁second",
      "-year"
    ],
    [
      "▁l",
      "itt"
    ],
    [
      "▁litt",
      "le"
    ],
    [
      "▁g",
      "on"
    ],
    [
      "▁gon",
      "na"
    ],
    [
      "▁j",
      "oin"
    ],
    [
      "▁as",
      "s"
    ],
    [
      "▁T",
      "su"
    ],
    [
      "▁act",
      "ually"
    ],
    [
      "▁ab",
      "le"
    ],
    [
      "ad",
      "y"
    ],
    [
      "▁cour",
      "se"
    ],
    [
      "▁fe",
      "el"
    ],
    [
      "▁D",
      "o"
    ],
    [
      "ic",
      "e"
    ],
    [
      "h",
      "."
    ],
    [
      "os",
      "s"
    ],
    [
      "▁h",
      "igh"
    ],
    [
      "▁all",
      "i"
    ],
    [
      "▁The",
      "y"
    ],
    [
      "ow",
      "er"
    ],
    [
      "▁th",
      "ose"
    ],
    [
      "sh",
      "ip"
    ],
    [
      "a",
      "z"
    ],
    [
      "e",
      "ad"
    ],
    [
      "▁int",
      "o"
    ],
    [
      "p",
      "r"
    ],
    [
      "ly",
      ","
    ],
    [
      "▁st",
      "u"
    ],
    [
      "▁h",
      "uh?"
    ],
    [
      "▁b",
      "est"
    ],
    [
      "▁b",
      "o"
    ],
    [
      "▁y",
      "et"
    ],
    [
      "a",
      "it"
    ],
    [
      "▁We",
      "'re"
    ],
    [
      "▁M",
      "ay"
    ],
    [
      "▁A",
      "s"
    ],
    [
      "▁A",
      "re"
    ],
    [
      "▁pro",
      "ble"
    ],
    [
      "▁proble",
      "m"
    ],
    [
      "▁bel",
      "ieve"
    ],
    [
      "▁in",
      "ter"
    ],
    [
      "▁k",
      "ind"
    ],
    [
      "▁m",
      "ight"
    ],
    [
      "▁No",
      ","
    ],
    [
      "▁ar",
      "ound"
    ],
    [
      "k",
      "ay"
    ],
    [
      "▁e",
      "l"
    ],
    [
      "▁qu",
      "est"
    ],
    [
      "▁You",
      "r"
    ],
    [
      "▁an",
      "other"
    ],
    [
      "▁A",
      "m"
    ],
    [
      "▁Am",
      "as"
    ],
    [
      "▁Amas",
      "awa"
    ],
    [
      "ar",
      "u"
    ],
    [
      "▁K",
      "iy"
    ],
    [
      "▁Kiy",
      "ot"
    ],
    [
      "▁Kiyot",
      "ak"
    ],
    [
      "l",
      "ain"
    ],
    [
      "b",
      "e"
    ],
    [
      "▁Sudo",
      "-kun"
    ],
    [
      "▁h",
      "ad"
    ],
    [
      "▁l",
      "at"
    ],
    [
      "▁ne",
      "xt"
    ],
    [
      "▁sk",
      "ill"
    ],
    [
      "t",
      ","
    ],
    [
      "▁c",
      "ur"
    ],
    [
      "s",
      "e."
    ],
    [
      "▁b",
      "ad"
    ],
    [
      "or",
      "m"
    ],
    [
      "▁thing",
      "s"
    ],
    [
      "a",
      "ve"
    ],
    [
      "▁al",
      "re"
    ],
    [
      "is",
      "e"
    ],
    [
      "am",
      "i"
    ],
    [
      "▁s",
      "ame"
    ],
    [
      "e",
      "!"
    ],
    [
      "▁alli",
      "ance"
    ],
    [
      "it",
      "uation"
    ],
    [
      "a",
      "b"
    ],
    [
      "▁e",
      "qual"
    ],
    [
      "a",
      "use"
    ],
    [
      "▁fa",
      "il"
    ],
    [
      "▁classm",
      "at"
    ],
    [
      "▁b",
      "re"
    ],
    [
      "▁bre",
      "ak"
    ],
    [
      "▁b",
      "u"
    ],
    [
      "▁d",
      "amn"
    ],
    [
      "a",
      "p"
    ],
    [
      "▁talk",
      "ing"
    ],
    [
      "▁Horikita",
      "-senpai"
    ],
    [
      "▁me",
      ","
    ],
    [
      "▁sorr",
      "y"
    ],
    [
      "ion",
      "s"
    ],
    [
      "▁c",
      "le"
    ],
    [
      "▁D",
      "id"
    ],
    [
      "t",
      "a"
    ],
    [
      "▁Th",
      "en"
    ],
    [
      "▁w",
      "an"
    ],
    [
      "▁wan",
      "na"
    ],
    [
      "▁le",
      "ad"
    ],
    [
      "▁ch",
      "ang"
    ],
    [
      "▁to",
      "get"
    ],
    [
      "▁toget",
      "her"
    ],
    [
      "▁he",
      "'s"
    ],
    [
      "▁now",
      ","
    ],
    [
      "ot",
      "h"
    ],
    [
      "▁gu",
      "ess"
    ],
    [
      "v",
      "es"
    ],
    [
      "▁you",
      "'d"
    ],
    [
      "▁it",
      ","
    ],
    [
      "▁ne",
      "ver"
    ],
    [
      "▁fin",
      "e."
    ],
    [
      "▁I",
      "ch"
    ],
    [
      "▁K",
      "aru"
    ],
    [
      "▁Karu",
      "iz"
    ],
    [
      "▁Karuiz",
      "awa"
    ],
    [
      "i",
      "."
    ],
    [
      "▁s",
      "l"
    ],
    [
      "e",
      "f"
    ],
    [
      "c",
      "e."
    ],
    [
      "▁s",
      "m"
    ],
    [
      "er",
      ","
    ],
    [
      "▁partner",
      "s"
    ],
    [
      "▁under",
      "st"
    ],
    [
      "▁underst",
      "and"
    ],
    [
      "g",
      "e"
    ],
    [
      "▁my",
      "self"
    ],
    [
      "▁st",
      "ill"
    ],
    [
      "▁lo",
      "ve"
    ],
    [
      "▁alre",
      "ady"
    ],
    [
      "▁get",
      "ting"
    ],
    [
      "▁b",
      "ig"
    ],
    [
      "▁R",
      "ight"
    ],
    [
      "ag",
      "e"
    ],
    [
      "▁with",
      "out"
    ],
    [
      "▁to",
      "ld"
    ],
    [
      "ce",
      "pt"
    ],
    [
      "▁de",
      "al"
    ],
    [
      "▁thr",
      "ough"
    ],
    [
      "▁f",
      "ar"
    ],
    [
      "w",
      "ay"
    ],
    [
      "▁c",
      "o"
    ],
    [
      "▁h",
      "op"
    ],
    [
      "▁class",
      "."
    ],
    [
      "▁bet",
      "w"
    ],
    [
      "▁betw",
      "een"
    ],
    [
      "▁",
      "\""
    ],
    [
      "▁e",
      "v"
    ],
    [
      "iv",
      "id"
    ],
    [
      "ivid",
      "ual"
    ],
    [
      "▁per",
      "fect"
    ],
    [
      "▁is",
      "n't"
    ],
    [
      "▁tr",
      "u"
    ],
    [
      "n",
      "y"
    ],
    [
      "en",
      "al"
    ],
    [
      "▁c",
      "all"
    ],
    [
      "▁do",
      "ing"
    ],
    [
      "▁right",
      "."
    ],
    [
      "▁D",
      "on't"
    ],
    [
      "le",
      "as"
    ],
    [
      "▁you",
      "'ve"
    ],
    [
      "e",
      "red"
    ],
    [
      "ic",
      "k"
    ],
    [
      "or",
      "n"
    ],
    [
      "▁c",
      "l"
    ],
    [
      "▁s",
      "ince"
    ],
    [
      "▁know",
      "."
    ],
    [
      "▁g",
      "ir"
    ],
    [
      "▁gir",
      "l"
    ],
    [
      "ou",
      "p"
    ],
    [
      "▁s",
      "ide"
    ],
    [
      "▁to",
      "m"
    ],
    [
      "▁f",
      "ound"
    ],
    [
      "▁e",
      "very"
    ],
    [
      "▁supp",
      "os"
    ],
    [
      "▁mak",
      "ing"
    ],
    [
      "re",
      "s"
    ],
    [
      "▁id",
      "ea"
    ],
    [
      "▁d",
      "et"
    ],
    [
      "▁comp",
      "et"
    ],
    [
      "▁mo",
      "ving"
    ],
    [
      "▁l",
      "ast"
    ],
    [
      "▁1-",
      "D"
    ],
    [
      "▁G",
      "o"
    ],
    [
      "v",
      "ed"
    ],
    [
      "bl",
      "e."
    ],
    [
      "▁ch",
      "ance"
    ],
    [
      "▁h",
      "o"
    ],
    [
      "▁t",
      "wo"
    ],
    [
      "g",
      "g"
    ],
    [
      "▁exp",
      "ul"
    ],
    [
      "▁expul",
      "s"
    ],
    [
      "i",
      "ate"
    ],
    [
      "▁c",
      "are"
    ],
    [
      "▁",
      "ent"
    ],
    [
      "▁w",
      "ent"
    ],
    [
      "▁ha",
      "ir"
    ],
    [
      "▁Th",
      "ank"
    ],
    [
      "▁Kiyotak",
      "a"
    ],
    [
      "▁cook",
      "ing"
    ],
    [
      "▁S",
      "t"
    ],
    [
      "▁qu",
      "ite"
    ],
    [
      "▁su",
      "ch"
    ],
    [
      "▁should",
      "n't"
    ],
    [
      "▁for",
      "m"
    ],
    [
      "▁S",
      "ak"
    ],
    [
      "▁work",
      "ing"
    ],
    [
      "▁app",
      "ro"
    ],
    [
      "k",
      "n"
    ],
    [
      "▁min",
      "ut"
    ],
    [
      "▁Tsu",
      "b"
    ],
    [
      "as",
      "on"
    ],
    [
      "at",
      "a"
    ],
    [
      "▁H",
      "ave"
    ],
    [
      "▁",
      "J"
    ],
    [
      "▁be",
      "h"
    ],
    [
      "▁f",
      "ig"
    ],
    [
      "▁c",
      "a"
    ],
    [
      "▁he",
      "ll"
    ],
    [
      "▁too",
      "."
    ],
    [
      "ing",
      "s"
    ],
    [
      "▁wh",
      "i"
    ],
    [
      "▁any",
      "one"
    ],
    [
      ",",
      "00"
    ],
    [
      ",00",
      "0"
    ],
    [
      "▁Yea",
      "h."
    ],
    [
      "▁ex",
      "ce"
    ],
    [
      "▁exce",
      "ll"
    ],
    [
      "▁excell",
      "ent"
    ],
    [
      "oss",
      "i"
    ],
    [
      "▁r",
      "ank"
    ],
    [
      "▁str",
      "ong"
    ],
    [
      "i",
      "x"
    ],
    [
      "▁them",
      "."
    ],
    [
      "it",
      "ion"
    ],
    [
      "▁s",
      "ituation"
    ],
    [
      "▁s",
      "et"
    ],
    [
      "in",
      "e"
    ],
    [
      "en",
      "er"
    ],
    [
      "▁Ryuen",
      "-kun"
    ],
    [
      "▁f",
      "o"
    ],
    [
      "▁b",
      "l"
    ],
    [
      "ve",
      "l"
    ],
    [
      "i",
      "re"
    ],
    [
      "▁w",
      "r"
    ],
    [
      "▁in",
      "d"
    ],
    [
      "▁c",
      "ertain"
    ],
    [
      "▁expell",
      "ed,"
    ],
    [
      "▁knif",
      "e"
    ],
    [
      "oc",
      "k"
    ],
    [
      "▁c",
      "as"
    ],
    [
      "▁p",
      "enal"
    ],
    [
      "▁r",
      "ul"
    ],
    [
      "▁re",
      "l"
    ],
    [
      "▁pre",
      "pa"
    ],
    [
      "▁tim",
      "e."
    ],
    [
      "▁p",
      "h"
    ],
    [
      "on",
      "e."
    ],
    [
      "▁sp",
      "e"
    ],
    [
      "▁th",
      "ough"
    ],
    [
      "▁cle",
      "ar"
    ],
    [
      "▁l",
      "ong"
    ],
    [
      "▁ask",
      "ed"
    ],
    [
      "▁out",
      ","
    ],
    [
      "▁Wh",
      "o"
    ],
    [
      "▁sh",
      "ow"
    ],
    [
      "▁B",
      "y"
    ],
    [
      "▁gr",
      "oup"
    ],
    [
      "▁there",
      "."
    ],
    [
      "▁ap",
      "art"
    ],
    [
      "orr",
      "ow"
    ],
    [
      "▁out",
      "."
    ],
    [
      "▁mat",
      "ter"
    ],
    [
      "▁m",
      "ust"
    ],
    [
      "▁F",
      "or"
    ],
    [
      "▁this",
      "."
    ],
    [
      "▁hur",
      "t"
    ],
    [
      "▁d",
      "es"
    ],
    [
      "▁bec",
      "ome"
    ],
    [
      "▁s",
      "er"
    ],
    [
      "d",
      "en"
    ],
    [
      "▁m",
      "ind"
    ],
    [
      "▁g",
      "am"
    ],
    [
      "▁al",
      "s"
    ],
    [
      "▁als",
      "o"
    ],
    [
      "▁this",
      ","
    ],
    [
      "▁Well",
      "..."
    ],
    [
      "▁m",
      "an"
    ],
    [
      "▁sorr",
      "y."
    ],
    [
      "▁t",
      "ell"
    ],
    [
      "▁What",
      "'s"
    ],
    [
      "es",
      "?"
    ],
    [
      "▁ha",
      "ving"
    ],
    [
      "▁b",
      "it"
    ],
    [
      "▁wor",
      "ld"
    ],
    [
      "▁partner",
      "."
    ],
    [
      "▁th",
      "ir"
    ],
    [
      "e",
      "-"
    ],
    [
      "▁up",
      "."
    ],
    [
      "▁Sak",
      "ay"
    ],
    [
      "▁Sakay",
      "an"
    ],
    [
      "▁Sakayan",
      "ag"
    ],
    [
      "▁expell",
      "ed."
    ],
    [
      "▁appro",
      "ach"
    ],
    [
      "▁t",
      "urn"
    ],
    [
      "ud",
      "g"
    ],
    [
      "kn",
      "ow"
    ],
    [
      "▁in",
      "st"
    ],
    [
      "▁are",
      "n't"
    ],
    [
      "▁re",
      "g"
    ],
    [
      "ate",
      ","
    ],
    [
      "▁re",
      "ason"
    ],
    [
      "▁second-year",
      "s"
    ],
    [
      "▁T",
      "r"
    ],
    [
      "ation",
      "."
    ],
    [
      "ly",
      "."
    ],
    [
      "▁fr",
      "iend"
    ],
    [
      "e",
      "w"
    ],
    [
      "▁beh",
      "ind"
    ],
    [
      "ig",
      "n"
    ],
    [
      "▁so",
      "."
    ],
    [
      "▁does",
      "n't"
    ],
    [
      "▁that",
      ","
    ],
    [
      "us",
      "h"
    ],
    [
      "ag",
      "ami"
    ],
    [
      "▁inter",
      "act"
    ],
    [
      "u",
      "c"
    ],
    [
      "r",
      "act"
    ],
    [
      "t",
      "en"
    ],
    [
      "▁will",
      "ing"
    ],
    [
      "▁C",
      "ould"
    ],
    [
      "▁",
      "5"
    ],
    [
      "t",
      "."
    ],
    [
      "▁mo",
      "st"
    ],
    [
      "▁m",
      "one"
    ],
    [
      "▁mone",
      "y"
    ],
    [
      "▁wor",
      "d"
    ],
    [
      "▁m",
      "en"
    ],
    [
      "▁u",
      "s."
    ],
    [
      "▁all",
      "ow"
    ],
    [
      "o",
      "g"
    ],
    [
      "m",
      "an"
    ],
    [
      "▁g",
      "reat"
    ],
    [
      "▁negoti",
      "ation"
    ],
    [
      "▁t",
      "ar"
    ],
    [
      "▁tar",
      "get"
    ],
    [
      "▁in",
      "v"
    ],
    [
      "▁imp",
      "ort"
    ],
    [
      "▁import",
      "ant"
    ],
    [
      "ate",
      "g"
    ],
    [
      "▁E",
      "ven"
    ],
    [
      "▁pro",
      "p"
    ],
    [
      "▁hop",
      "e"
    ],
    [
      "ere",
      "st"
    ],
    [
      "le",
      "ct"
    ],
    [
      "▁score",
      "s"
    ],
    [
      "il",
      "ity"
    ],
    [
      "al",
      "uation"
    ],
    [
      "▁bas",
      "ed"
    ],
    [
      "▁ind",
      "ividual"
    ],
    [
      "ent",
      "s"
    ],
    [
      "▁class",
      "es"
    ],
    [
      "▁first-year",
      "s."
    ],
    [
      "-",
      "W"
    ],
    [
      "▁Ich",
      "in"
    ],
    [
      "▁Ichin",
      "ose"
    ],
    [
      "▁m",
      "ix"
    ],
    [
      "▁st",
      "op"
    ],
    [
      "▁Pre",
      "sident"
    ],
    [
      "▁mean",
      "?"
    ],
    [
      "▁want",
      "ed"
    ],
    [
      "▁l",
      "ower"
    ],
    [
      "▁class",
      ","
    ],
    [
      "i",
      "ld"
    ],
    [
      "▁rel",
      "ation"
    ],
    [
      "▁relation",
      "ship"
    ],
    [
      "▁Hosen-kun",
      "."
    ],
    [
      "▁prepa",
      "red"
    ],
    [
      "▁dis",
      "c"
    ],
    [
      "▁",
      "V"
    ],
    [
      "▁V",
      "er"
    ],
    [
      "▁Ver",
      "y"
    ],
    [
      "▁spe",
      "ak"
    ],
    [
      "▁though",
      "."
    ],
    [
      "▁cont",
      "act"
    ],
    [
      "▁le",
      "ast"
    ],
    [
      "▁int",
      "ent"
    ],
    [
      "▁",
      "#"
    ],
    [
      "erm",
      "in"
    ],
    [
      "▁p",
      "ick"
    ],
    [
      "▁m",
      "orn"
    ],
    [
      "▁way",
      ","
    ],
    [
      "▁stud",
      "y"
    ],
    [
      "▁bo",
      "y"
    ],
    [
      "f",
      "r"
    ],
    [
      "fr",
      "iend"
    ],
    [
      "▁tom",
      "orrow"
    ],
    [
      "▁We",
      "'ll"
    ],
    [
      "▁e",
      "as"
    ],
    [
      "▁p",
      "ass"
    ],
    [
      "▁gr",
      "ad"
    ],
    [
      "▁suppos",
      "e."
    ],
    [
      "▁for",
      "ce"
    ],
    [
      "▁m",
      "eth"
    ],
    [
      "▁meth",
      "od"
    ],
    [
      "▁s",
      "id"
    ],
    [
      "▁chang",
      "e"
    ],
    [
      "▁a",
      "w"
    ],
    [
      "▁way",
      "."
    ],
    [
      "▁b",
      "oth"
    ],
    [
      "▁we",
      "'ll"
    ],
    [
      "▁C",
      "an"
    ],
    [
      "▁hand",
      "le"
    ],
    [
      "ure",
      "."
    ],
    [
      "▁do",
      "."
    ],
    [
      "▁they",
      "'re"
    ],
    [
      "▁Nanas",
      "e."
    ],
    [
      "▁tim",
      "e,"
    ],
    [
      "▁care",
      "ful"
    ],
    [
      "▁O",
      "kay"
    ],
    [
      "▁el",
      "se"
    ],
    [
      "y",
      "!"
    ],
    [
      "▁com",
      "ing"
    ],
    [
      "▁here",
      ","
    ],
    [
      "▁me",
      "!"
    ],
    [
      "▁K",
      "e"
    ],
    [
      "▁exp",
      "lain"
    ],
    [
      "▁He",
      "y."
    ],
    [
      "▁She",
      "'s"
    ],
    [
      "i",
      "ke"
    ],
    [
      "▁all",
      "."
    ],
    [
      "▁St",
      "ill"
    ],
    [
      "v",
      "ious"
    ],
    [
      "▁on",
      "."
    ],
    [
      "▁j",
      "udg"
    ],
    [
      "l",
      "ed"
    ],
    [
      "ak",
      "i"
    ],
    [
      "▁about",
      "?"
    ],
    [
      "▁but",
      "..."
    ],
    [
      "▁Wh",
      "en"
    ],
    [
      "▁mak",
      "es"
    ],
    [
      "▁B",
      "e"
    ],
    [
      "▁J",
      "ust"
    ],
    [
      "▁M",
      "y"
    ],
    [
      "▁kn",
      "ew"
    ],
    [
      "▁He",
      "'s"
    ],
    [
      "▁Suzun",
      "e"
    ],
    [
      "▁Ayanokoji",
      "."
    ],
    [
      "u",
      "red"
    ],
    [
      "▁tr",
      "ou"
    ],
    [
      "▁c",
      "r"
    ],
    [
      "▁K",
      "ush"
    ],
    [
      "▁Kush",
      "id"
    ],
    [
      "▁Kushid",
      "a"
    ],
    [
      "id",
      "d"
    ],
    [
      "▁Y",
      "agami"
    ],
    [
      "▁sm",
      "art"
    ],
    [
      "▁su",
      "r"
    ],
    [
      "▁un",
      "t"
    ],
    [
      "▁unt",
      "il"
    ],
    [
      "com",
      "ing"
    ],
    [
      "▁Right",
      "?"
    ],
    [
      "v",
      "es."
    ],
    [
      "▁We",
      "'ve"
    ],
    [
      "▁re",
      "qu"
    ],
    [
      "in",
      "e,"
    ],
    [
      "▁att",
      "em"
    ],
    [
      "▁attem",
      "pt"
    ],
    [
      "▁m",
      "ill"
    ],
    [
      "00",
      ",000"
    ],
    [
      "▁p",
      "ossi"
    ],
    [
      "y",
      "s"
    ],
    [
      "ys",
      "ic"
    ],
    [
      "e",
      "ver"
    ],
    [
      "▁Suzun",
      "e."
    ],
    [
      "c",
      "ed"
    ],
    [
      "▁ne",
      "w"
    ],
    [
      "▁cur",
      "ren"
    ],
    [
      "▁curren",
      "t"
    ],
    [
      "ing",
      ","
    ],
    [
      "▁ap",
      "ol"
    ],
    [
      "▁apol",
      "og"
    ],
    [
      "▁fe",
      "w"
    ],
    [
      "▁e",
      "ach"
    ],
    [
      "▁dec",
      "id"
    ],
    [
      "▁agre",
      "e"
    ],
    [
      "est",
      "er"
    ],
    [
      "ester",
      "day"
    ],
    [
      "▁br",
      "and"
    ],
    [
      "▁m",
      "on"
    ],
    [
      "al",
      "."
    ],
    [
      "▁st",
      "ay"
    ],
    [
      "p",
      "l"
    ],
    [
      "▁stu",
      "p"
    ],
    [
      "▁stup",
      "id"
    ],
    [
      "▁str",
      "ateg"
    ],
    [
      "▁b",
      "en"
    ],
    [
      "ll",
      "ow"
    ],
    [
      "▁br",
      "i"
    ],
    [
      "▁we",
      "'d"
    ],
    [
      "al",
      "m"
    ],
    [
      "▁Y",
      "-"
    ],
    [
      "▁Y-",
      "Y"
    ],
    [
      "▁Sakayanag",
      "i"
    ],
    [
      "▁to",
      "day"
    ],
    [
      "▁prop",
      "os"
    ],
    [
      "▁c",
      "ame"
    ],
    [
      "▁r",
      "o"
    ],
    [
      "▁l",
      "ea"
    ],
    [
      "▁lea",
      "ve"
    ],
    [
      "ent",
      "."
    ],
    [
      "▁h",
      "id"
    ],
    [
      "▁wor",
      "r"
    ],
    [
      "▁int",
      "end"
    ],
    [
      "ch",
      "a."
    ],
    [
      "▁O",
      "A"
    ],
    [
      "▁OA",
      "A"
    ],
    [
      "f",
      "ic"
    ],
    [
      "fic",
      "i"
    ],
    [
      "▁in",
      "c"
    ],
    [
      "▁att",
      "end"
    ],
    [
      "i",
      "or"
    ],
    [
      "p",
      "ect"
    ],
    [
      "▁fight",
      "ing"
    ],
    [
      "▁pre",
      "sident"
    ],
    [
      "▁is",
      "su"
    ],
    [
      "▁agre",
      "em"
    ],
    [
      "ith",
      "er"
    ],
    [
      "▁f",
      "act"
    ],
    [
      "▁classmat",
      "es"
    ],
    [
      "▁br",
      "ing"
    ],
    [
      "▁now",
      "?"
    ],
    [
      "▁real",
      "ize"
    ],
    [
      "▁br",
      "other"
    ],
    [
      "a",
      "ble"
    ],
    [
      "▁t",
      "erm"
    ],
    [
      "▁ex",
      "c"
    ],
    [
      "▁st",
      "ab"
    ],
    [
      "▁l",
      "ear"
    ],
    [
      "▁lear",
      "n"
    ],
    [
      "▁th",
      "ing."
    ],
    [
      "▁bec",
      "ause"
    ],
    [
      "▁cas",
      "e,"
    ],
    [
      "▁A",
      "ny"
    ],
    [
      "er",
      "s"
    ],
    [
      "▁Ayanokoji-senpai",
      "."
    ],
    [
      "▁has",
      "n't"
    ],
    [
      "▁t",
      "ak"
    ],
    [
      "▁want",
      "s"
    ],
    [
      "ie",
      "ld"
    ],
    [
      "▁disc",
      "us"
    ],
    [
      "▁discus",
      "s"
    ],
    [
      "▁f",
      "ill"
    ],
    [
      "▁person",
      "."
    ],
    [
      "▁N",
      "a"
    ],
    [
      "▁ref",
      "use"
    ],
    [
      "▁negoti",
      "ate"
    ],
    [
      "▁Wh",
      "ere"
    ],
    [
      "▁k",
      "ill"
    ],
    [
      "▁didn't",
      "."
    ],
    [
      "▁C",
      "all"
    ],
    [
      "▁p",
      "leas"
    ],
    [
      "▁But",
      "..."
    ],
    [
      "▁A",
      "pr"
    ],
    [
      "▁Apr",
      "il"
    ],
    [
      "▁ch",
      "ec"
    ],
    [
      "▁chec",
      "k"
    ],
    [
      "▁re",
      "t"
    ],
    [
      "▁ret",
      "urn"
    ],
    [
      "▁stu",
      "ff"
    ],
    [
      "it",
      "ud"
    ],
    [
      "▁apart",
      "ment"
    ],
    [
      "-kun",
      "."
    ],
    [
      "▁he",
      "ar"
    ],
    [
      "i",
      "ly"
    ],
    [
      "▁partner",
      ","
    ],
    [
      "▁B",
      "ec"
    ],
    [
      "▁Bec",
      "ause"
    ],
    [
      "-",
      "I"
    ],
    [
      "▁w",
      "ait"
    ],
    [
      "▁con",
      "v"
    ],
    [
      "res",
      "s"
    ],
    [
      "▁det",
      "ermin"
    ],
    [
      "▁Hosen-kun",
      "'s"
    ],
    [
      "▁think",
      "ing"
    ],
    [
      "▁1-D",
      "."
    ],
    [
      "▁Would",
      "n't"
    ],
    [
      "▁o",
      "pp"
    ],
    [
      "ort",
      "un"
    ],
    [
      "▁class",
      "'s"
    ],
    [
      "ol",
      "ved"
    ],
    [
      "▁aw",
      "are"
    ],
    [
      "▁g",
      "ame"
    ],
    [
      "▁pro",
      "ve"
    ],
    [
      "▁student",
      "."
    ],
    [
      "▁anyth",
      "ing."
    ],
    [
      "▁Go",
      "od"
    ],
    [
      "b",
      "y"
    ],
    [
      "▁not",
      "."
    ],
    [
      "▁expuls",
      "ion."
    ],
    [
      "▁se",
      "en"
    ],
    [
      "▁Okay",
      ","
    ],
    [
      "▁l",
      "et's"
    ],
    [
      "▁li",
      "k"
    ],
    [
      "▁C",
      ","
    ],
    [
      "▁st",
      "and"
    ],
    [
      "▁en",
      "c"
    ],
    [
      "▁s",
      "ol"
    ],
    [
      "ea",
      "ch"
    ],
    [
      "es",
      "s."
    ],
    [
      "▁Sorr",
      "y,"
    ],
    [
      "▁n",
      "ame"
    ],
    [
      "h",
      "ere"
    ],
    [
      "▁May",
      "be"
    ],
    [
      "▁Senpai",
      ","
    ],
    [
      "▁an",
      "s"
    ],
    [
      "▁ans",
      "w"
    ],
    [
      "▁G",
      "ot"
    ],
    [
      "▁L",
      "ike"
    ],
    [
      "▁said",
      ","
    ],
    [
      "▁thir",
      "d"
    ],
    [
      "▁Sorr",
      "y"
    ],
    [
      "▁S",
      "e"
    ],
    [
      "▁Still",
      ","
    ],
    [
      "one",
      ","
    ],
    [
      "▁re",
      "m"
    ],
    [
      "▁You",
      "'ve"
    ],
    [
      "▁approach",
      "."
    ],
    [
      "▁ho",
      "ld"
    ],
    [
      "▁con",
      "sid"
    ],
    [
      "▁consid",
      "er"
    ],
    [
      "▁myself",
      "."
    ],
    [
      "▁inst",
      "ead"
    ],
    [
      "▁2",
      "-"
    ],
    [
      "▁2-",
      "D"
    ],
    [
      "▁s",
      "ud"
    ],
    [
      "▁sud",
      "den"
    ],
    [
      "▁reg",
      "re"
    ],
    [
      "▁O",
      "f"
    ],
    [
      "▁cour",
      "se."
    ],
    [
      "▁s",
      "en"
    ],
    [
      "▁Tr",
      "u"
    ],
    [
      "▁Tru",
      "e."
    ],
    [
      "▁in",
      "f"
    ],
    [
      "▁se",
      "l"
    ],
    [
      "▁sel",
      "f"
    ],
    [
      "▁again",
      "."
    ],
    [
      "▁go",
      ","
    ],
    [
      "▁Karuizawa",
      "-san"
    ],
    [
      "▁H",
      "ir"
    ],
    [
      "▁Hir",
      "ata"
    ],
    [
      "▁h",
      "on"
    ],
    [
      "▁quest",
      "ion"
    ],
    [
      "▁ask",
      "ing"
    ],
    [
      "▁ad",
      "v"
    ],
    [
      "▁me",
      "as"
    ],
    [
      "▁Ayanokoji-kun",
      "'s"
    ],
    [
      "▁c",
      "ool"
    ],
    [
      "▁so",
      "on"
    ],
    [
      "h",
      "ead"
    ],
    [
      "▁fig",
      "ured"
    ],
    [
      "▁st",
      "ren"
    ],
    [
      "▁stren",
      "g"
    ],
    [
      "▁streng",
      "th"
    ],
    [
      "▁can",
      "."
    ],
    [
      "▁was",
      "n't"
    ],
    [
      "▁whi",
      "le"
    ],
    [
      "▁l",
      "uc"
    ],
    [
      "▁luc",
      "k"
    ],
    [
      "▁school",
      ","
    ],
    [
      "▁p",
      "ast"
    ],
    [
      "er",
      "?"
    ],
    [
      "▁ad",
      "m"
    ],
    [
      "▁our",
      "sel"
    ],
    [
      "ag",
      "g"
    ],
    [
      "▁look",
      "ing"
    ],
    [
      "▁O",
      "-"
    ],
    [
      "▁O-",
      "O"
    ],
    [
      "▁up",
      "coming"
    ],
    [
      "ou",
      "s."
    ],
    [
      "▁d",
      "if"
    ],
    [
      "▁dif",
      "f"
    ],
    [
      "▁diff",
      "icul"
    ],
    [
      "▁f",
      "all"
    ],
    [
      "ant",
      "age"
    ],
    [
      "▁u",
      "se"
    ],
    [
      "▁ex",
      "t"
    ],
    [
      "ul",
      "t"
    ],
    [
      "▁gam",
      "e."
    ],
    [
      "▁mill",
      "ion."
    ],
    [
      "▁word",
      "s,"
    ],
    [
      "▁f",
      "ive"
    ],
    [
      "pp",
      "ing"
    ],
    [
      "▁Senpai",
      "!"
    ],
    [
      "▁ac",
      "ademic"
    ],
    [
      "▁f",
      "un"
    ],
    [
      "l",
      "ic"
    ],
    [
      "▁ac",
      "cept"
    ],
    [
      "m",
      "e"
    ],
    [
      "ship",
      "s"
    ],
    [
      "▁n",
      "um"
    ],
    [
      "▁num",
      "ber"
    ],
    [
      "▁al",
      "ong"
    ],
    [
      "▁p",
      "os"
    ],
    [
      "▁him",
      "."
    ],
    [
      "▁v",
      "i"
    ],
    [
      "▁vi",
      "ol"
    ],
    [
      "▁d",
      "one"
    ],
    [
      "v",
      "o"
    ],
    [
      "vo",
      "id"
    ],
    [
      "▁im",
      "ag"
    ],
    [
      "▁imag",
      "ine"
    ],
    [
      "▁in",
      "s"
    ],
    [
      "▁y",
      "esterday"
    ],
    [
      "▁the",
      "se"
    ],
    [
      "▁n",
      "ice"
    ],
    [
      "▁y",
      "um"
    ],
    [
      "▁go",
      "ong"
    ],
    [
      "if",
      "t"
    ],
    [
      "▁b",
      "ought"
    ],
    [
      "▁ac",
      "com"
    ],
    [
      "▁accom",
      "pl"
    ],
    [
      "▁g",
      "ener"
    ],
    [
      "ally",
      ","
    ],
    [
      "p",
      "ic"
    ],
    [
      "▁Tsub",
      "as"
    ],
    [
      "▁T",
      "ell"
    ],
    [
      "▁fo",
      "llow"
    ],
    [
      "c",
      "ess"
    ],
    [
      "▁there",
      ","
    ],
    [
      "▁p",
      "ower"
    ],
    [
      "▁Y-Y",
      "ou"
    ],
    [
      "▁up",
      "?"
    ],
    [
      "▁propos",
      "al"
    ],
    [
      "-",
      "in"
    ],
    [
      "▁negotiation",
      "s"
    ],
    [
      "▁A",
      "b"
    ],
    [
      "▁ar",
      "r"
    ],
    [
      "▁me",
      "m"
    ],
    [
      "▁mon",
      "th"
    ],
    [
      "▁t",
      "al"
    ],
    [
      "▁hid",
      "ing"
    ],
    [
      "▁M",
      "iy"
    ],
    [
      "▁you",
      "!"
    ],
    [
      "lect",
      "s"
    ],
    [
      "▁year",
      "."
    ],
    [
      "fici",
      "en"
    ],
    [
      "ficien",
      "c"
    ],
    [
      "▁com",
      "m"
    ],
    [
      "c",
      "lass"
    ],
    [
      "▁g",
      "iv"
    ],
    [
      "▁giv",
      "ing"
    ],
    [
      "em",
      "ber"
    ],
    [
      "▁re",
      "p"
    ],
    [
      "▁tru",
      "e"
    ],
    [
      "g",
      "r"
    ],
    [
      "▁al",
      "way"
    ],
    [
      "ent",
      "y"
    ],
    [
      "iv",
      "es"
    ],
    [
      "t",
      "o"
    ],
    [
      "▁penal",
      "ty"
    ],
    [
      "▁intent",
      "ion"
    ],
    [
      "▁intention",
      "ally"
    ],
    [
      "if",
      "ic"
    ],
    [
      "l",
      "ess"
    ],
    [
      "▁wr",
      "ong"
    ],
    [
      "▁council",
      "."
    ],
    [
      "▁go",
      "."
    ],
    [
      "▁d",
      "ire"
    ],
    [
      "▁dire",
      "ct"
    ],
    [
      "s",
      "?"
    ],
    [
      "▁th",
      "reat"
    ],
    [
      "▁f",
      "re"
    ],
    [
      "▁pre",
      "s"
    ],
    [
      "▁sl",
      "ack"
    ],
    [
      "u",
      "ll"
    ],
    [
      "ur",
      "d"
    ],
    [
      "▁de",
      "f"
    ],
    [
      "▁may",
      "be"
    ],
    [
      "ill",
      "ion"
    ],
    [
      "▁pr",
      "ot"
    ],
    [
      "▁prot",
      "ect"
    ],
    [
      "▁s",
      "aw"
    ],
    [
      "az",
      "ing"
    ],
    [
      "▁ab",
      "s"
    ],
    [
      "▁b",
      "oun"
    ],
    [
      "▁boun",
      "ty"
    ],
    [
      "▁l",
      "if"
    ],
    [
      "▁su",
      "m"
    ],
    [
      "▁sum",
      "m"
    ],
    [
      "▁equal",
      "s."
    ],
    [
      "▁learn",
      "ed"
    ],
    [
      "▁m",
      "ot"
    ],
    [
      "▁he",
      "'d"
    ],
    [
      "▁partner",
      "ing"
    ],
    [
      "c",
      "or"
    ],
    [
      "▁student",
      "s."
    ],
    [
      "▁tru",
      "e."
    ],
    [
      "▁pay",
      "ment"
    ],
    [
      "▁rul",
      "es"
    ],
    [
      "▁bu",
      "ild"
    ],
    [
      "▁f",
      "ield"
    ],
    [
      "▁K",
      "az"
    ],
    [
      "▁Kaz",
      "u"
    ],
    [
      "▁Kazu",
      "om"
    ],
    [
      "▁Kazuom",
      "i"
    ],
    [
      "▁Na",
      "h,"
    ],
    [
      "▁gr",
      "ate"
    ],
    [
      "▁grate",
      "ful"
    ],
    [
      "▁A",
      "t"
    ],
    [
      "▁cl",
      "er"
    ],
    [
      "▁cler",
      "k"
    ],
    [
      "▁talk",
      "ed"
    ],
    [
      "▁tr",
      "i"
    ],
    [
      "▁tri",
      "ed"
    ],
    [
      "▁bu",
      "y"
    ],
    [
      "▁expect",
      "ed."
    ],
    [
      "▁L",
      "ook"
    ],
    [
      "▁l",
      "ate"
    ],
    [
      "▁got",
      "ta"
    ],
    [
      "▁yet",
      ","
    ],
    [
      "▁try",
      "ing"
    ],
    [
      "▁determin",
      "ed"
    ],
    [
      "▁forward",
      "."
    ],
    [
      "▁mind",
      "."
    ],
    [
      "it",
      "ies"
    ],
    [
      "▁again",
      "st"
    ],
    [
      "▁h",
      "al"
    ],
    [
      "▁hal",
      "f"
    ],
    [
      "es",
      "p"
    ],
    [
      "▁af",
      "fect"
    ],
    [
      "c",
      "ing"
    ],
    [
      "▁plan",
      "."
    ],
    [
      "u",
      "gg"
    ],
    [
      "ugg",
      "l"
    ],
    [
      "▁f",
      "ell"
    ],
    [
      "▁sp",
      "end"
    ],
    [
      "▁this",
      "?"
    ],
    [
      "▁than",
      "k"
    ],
    [
      "▁app",
      "re"
    ],
    [
      "▁appre",
      "c"
    ],
    [
      "▁apprec",
      "iate"
    ],
    [
      "s",
      "ide"
    ],
    [
      "▁Sh",
      "ould"
    ],
    [
      "▁ent",
      "ertain"
    ],
    [
      "▁quest",
      "ion."
    ],
    [
      "▁rat",
      "ing"
    ],
    [
      "▁h",
      "ide"
    ],
    [
      "▁So",
      ","
    ],
    [
      "▁that",
      "..."
    ],
    [
      "▁enc",
      "oun"
    ],
    [
      "▁s",
      "ing"
    ],
    [
      "▁sing",
      "le"
    ],
    [
      "▁Karuizawa",
      "-senpai"
    ],
    [
      "▁girl",
      "friend"
    ],
    [
      "▁something",
      "?"
    ],
    [
      "▁How",
      "'s"
    ],
    [
      "▁le",
      "f"
    ],
    [
      "▁fa",
      "v"
    ],
    [
      "▁fav",
      "or"
    ],
    [
      "w",
      "here"
    ],
    [
      "▁here",
      "..."
    ],
    [
      "▁person",
      "al"
    ],
    [
      "▁on",
      "ce."
    ],
    [
      "ar",
      "ch"
    ],
    [
      "▁on",
      "ce"
    ],
    [
      "▁pro",
      "b"
    ],
    [
      "▁Se",
      "e"
    ],
    [
      "▁By",
      "e-"
    ],
    [
      "▁Bye-",
      "by"
    ],
    [
      "▁then",
      "!"
    ],
    [
      "a",
      "i"
    ],
    [
      "▁pair",
      "s"
    ],
    [
      "▁Ayanokoji-kun",
      "."
    ],
    [
      "▁s",
      "ent"
    ],
    [
      "▁down",
      "."
    ],
    [
      "▁ac",
      "know"
    ],
    [
      "▁acknow",
      "led"
    ],
    [
      "▁acknowled",
      "ge"
    ],
    [
      "▁w",
      "at"
    ],
    [
      "▁wat",
      "ch"
    ],
    [
      "t",
      "le"
    ],
    [
      "ak",
      "i."
    ],
    [
      "▁h",
      "ate"
    ],
    [
      "▁lat",
      "er."
    ],
    [
      "▁cur",
      "ious"
    ],
    [
      "▁man",
      "y"
    ],
    [
      "▁O",
      "ut"
    ],
    [
      "▁happen",
      "ed"
    ],
    [
      "as",
      "ter"
    ],
    [
      "▁He",
      "re"
    ],
    [
      "▁inf",
      "orm"
    ],
    [
      "o",
      "od"
    ],
    [
      "▁from",
      "?"
    ],
    [
      "un",
      "n"
    ],
    [
      "▁d",
      "ating"
    ],
    [
      "▁are",
      ","
    ],
    [
      "▁H",
      "-"
    ],
    [
      "▁H-",
      "H"
    ],
    [
      "▁hon",
      "est"
    ],
    [
      "▁mean",
      ","
    ],
    [
      "▁d",
      "at"
    ],
    [
      "▁dat",
      "ing."
    ],
    [
      "▁break",
      "."
    ],
    [
      "▁then",
      ","
    ],
    [
      "▁is",
      ","
    ],
    [
      "▁back",
      "."
    ],
    [
      "▁meas",
      "ure"
    ],
    [
      "▁h",
      "it"
    ],
    [
      "▁problem",
      "."
    ],
    [
      "▁did",
      "."
    ],
    [
      "▁Hosen",
      "."
    ],
    [
      "▁course",
      "!"
    ],
    [
      "▁en",
      "j"
    ],
    [
      "▁enj",
      "o"
    ],
    [
      "▁enjo",
      "y"
    ],
    [
      "▁H",
      "ell"
    ],
    [
      "a",
      "ise"
    ],
    [
      "▁y",
      "'"
    ],
    [
      "▁y'",
      "know"
    ],
    [
      "▁y'know",
      "?"
    ],
    [
      "us",
      "ed"
    ],
    [
      "▁trou",
      "ble"
    ],
    [
      "▁e",
      "ff"
    ],
    [
      "▁eff",
      "ort"
    ],
    [
      "▁imp",
      "ro"
    ],
    [
      "▁grad",
      "u"
    ],
    [
      "▁gu",
      "y"
    ],
    [
      "▁W",
      "ill"
    ],
    [
      "▁U",
      "m"
    ],
    [
      "▁m",
      "idd"
    ],
    [
      "▁midd",
      "le"
    ],
    [
      "▁af",
      "r"
    ],
    [
      "▁afr",
      "aid"
    ],
    [
      "▁con",
      "c"
    ],
    [
      "▁sur",
      "pr"
    ],
    [
      "▁test",
      "?"
    ],
    [
      "es",
      "ome"
    ],
    [
      "agg",
      "ed"
    ],
    [
      "▁oursel",
      "ves."
    ],
    [
      "▁r",
      "id"
    ],
    [
      "▁rid",
      "icul"
    ],
    [
      "▁requ",
      "est"
    ],
    [
      "in",
      "e."
    ],
    [
      "in",
      "'"
    ],
    [
      "▁like",
      "ly"
    ],
    [
      "▁res",
      "ult"
    ],
    [
      "▁mean",
      "s"
    ],
    [
      "is",
      "k"
    ],
    [
      "u",
      "e"
    ],
    [
      "o",
      "ke"
    ],
    [
      "▁ph",
      "ysic"
    ],
    [
      "▁com",
      "es"
    ],
    [
      "▁partner",
      "!"
    ],
    [
      "▁o",
      "b"
    ],
    [
      "▁ser",
      "i"
    ],
    [
      "▁dis",
      "h"
    ],
    [
      "▁skill",
      "s"
    ],
    [
      "▁F",
      "ine,"
    ],
    [
      "▁ext",
      "re"
    ],
    [
      "▁extre",
      "me"
    ],
    [
      "▁extreme",
      "ly"
    ],
    [
      "▁h",
      "ome"
    ],
    [
      "▁off",
      "."
    ],
    [
      "▁Ayanokoji",
      "!"
    ],
    [
      "▁T",
      "om"
    ],
    [
      "ur",
      "ing"
    ],
    [
      "▁partner",
      "ships"
    ],
    [
      "▁form",
      "ed"
    ],
    [
      "n",
      "ered"
    ],
    [
      "▁apolog",
      "ize"
    ],
    [
      "▁day",
      "."
    ],
    [
      "▁is",
      "..."
    ],
    [
      "▁yet",
      "."
    ],
    [
      "▁pos",
      "ition"
    ],
    [
      "▁with",
      "in"
    ],
    [
      "▁part",
      "icul"
    ],
    [
      "▁particul",
      "ar"
    ],
    [
      "▁viol",
      "ence"
    ],
    [
      "▁he",
      "'ll"
    ],
    [
      "ad",
      "e"
    ],
    [
      "▁mo",
      "ve"
    ],
    [
      "▁a",
      "void"
    ],
    [
      "ance",
      ","
    ],
    [
      "▁knif",
      "e,"
    ],
    [
      "▁W",
      "ait"
    ],
    [
      "▁Th",
      "es"
    ],
    [
      "▁Thes",
      "e"
    ],
    [
      "en",
      "s"
    ],
    [
      "▁o",
      "kay"
    ],
    [
      "▁okay",
      "?"
    ],
    [
      "▁C",
      "om"
    ],
    [
      "▁he",
      "ard"
    ],
    [
      "▁w",
      "alk"
    ],
    [
      "▁f",
      "ift"
    ],
    [
      "▁fift",
      "een"
    ],
    [
      "▁for",
      "get"
    ],
    [
      "▁head",
      "ing"
    ],
    [
      "▁accompl",
      "ish"
    ],
    [
      "▁Th",
      "ough"
    ],
    [
      "▁Amasawa",
      "'s"
    ],
    [
      "▁su",
      "s"
    ],
    [
      "▁Tsubas",
      "a"
    ],
    [
      "▁offer",
      "."
    ],
    [
      "▁cont",
      "ract"
    ],
    [
      "▁strateg",
      "y"
    ],
    [
      "▁ben",
      "ef"
    ],
    [
      "▁benef",
      "it"
    ],
    [
      "▁follow",
      "ing"
    ],
    [
      "▁m",
      "ist"
    ],
    [
      "▁mist",
      "ake"
    ],
    [
      "▁bri",
      "b"
    ],
    [
      "▁m",
      "is"
    ],
    [
      "ic",
      "ed"
    ],
    [
      "▁2",
      "00,000"
    ],
    [
      "▁them",
      "?"
    ],
    [
      "ar",
      "y"
    ],
    [
      "▁pay",
      "."
    ],
    [
      "▁el",
      "se."
    ],
    [
      "ch",
      "ang"
    ],
    [
      "▁le",
      "vel"
    ],
    [
      "at",
      "s"
    ],
    [
      "▁Nanase",
      "-san"
    ],
    [
      "▁pro",
      "per"
    ],
    [
      "o",
      "or"
    ],
    [
      "▁self",
      "-in"
    ],
    [
      "▁self-in",
      "t"
    ],
    [
      "▁self-int",
      "erest"
    ],
    [
      "▁forward",
      ","
    ],
    [
      "▁f",
      "oc"
    ],
    [
      "▁dis",
      "ad"
    ],
    [
      "▁disad",
      "v"
    ],
    [
      "▁disadv",
      "antage"
    ],
    [
      "▁possi",
      "ble"
    ],
    [
      "l",
      "ud"
    ],
    [
      "▁d",
      "ata"
    ],
    [
      "iz",
      "ed"
    ],
    [
      "i",
      "ec"
    ],
    [
      "▁tal",
      "ent"
    ],
    [
      "▁int",
      "erest"
    ],
    [
      "▁worr",
      "i"
    ],
    [
      "a",
      ","
    ],
    [
      "▁too",
      "..."
    ],
    [
      "▁year",
      ","
    ],
    [
      "▁tak",
      "es"
    ],
    [
      "▁A",
      "ll"
    ],
    [
      "▁P",
      "r"
    ],
    [
      "▁wr",
      "itt"
    ],
    [
      "▁writt",
      "en"
    ],
    [
      "▁R",
      "ef"
    ],
    [
      "▁Ref",
      "lects"
    ],
    [
      "▁ev",
      "aluation"
    ],
    [
      "▁g",
      "y"
    ],
    [
      "▁gy",
      "m"
    ],
    [
      "▁Th",
      "ink"
    ],
    [
      "▁comm",
      "un"
    ],
    [
      "os",
      "oc"
    ],
    [
      "osoc",
      "ial"
    ],
    [
      "▁P",
      "ro"
    ],
    [
      "▁Pro",
      "ficienc"
    ],
    [
      "▁Proficienc",
      "y"
    ],
    [
      "▁to",
      "ward"
    ],
    [
      "ener",
      "al"
    ],
    [
      "▁E",
      "v"
    ],
    [
      "▁Ev",
      "aluation"
    ],
    [
      "▁ab",
      "ility"
    ],
    [
      "▁f",
      "our"
    ],
    [
      "al",
      "u"
    ],
    [
      "▁",
      "("
    ],
    [
      "▁",
      "+"
    ],
    [
      "▁ab",
      "il"
    ],
    [
      "▁be",
      "g"
    ],
    [
      "▁s",
      "im"
    ],
    [
      "▁rep",
      "res"
    ],
    [
      "ar",
      "k"
    ],
    [
      "▁d",
      "r"
    ],
    [
      "▁interact",
      "ion"
    ],
    [
      "▁How",
      "ever"
    ],
    [
      "▁expuls",
      "ion"
    ],
    [
      "▁A",
      "-"
    ],
    [
      "▁A-",
      "A"
    ],
    [
      "▁con",
      "cept"
    ],
    [
      "▁P",
      "art"
    ],
    [
      "▁feel",
      "s"
    ],
    [
      "h",
      "ap"
    ],
    [
      "j",
      "ect"
    ],
    [
      "ent",
      "ives"
    ],
    [
      "▁own",
      "."
    ],
    [
      "-W",
      "h"
    ],
    [
      "▁hur",
      "r"
    ],
    [
      "▁S",
      "ome"
    ],
    [
      "▁ch",
      "o"
    ],
    [
      "▁im",
      "m"
    ],
    [
      "▁imm",
      "ed"
    ],
    [
      "▁immed",
      "iate"
    ],
    [
      "▁s",
      "ign"
    ],
    [
      "air",
      "man"
    ],
    [
      "▁Tsu",
      "k"
    ],
    [
      "▁Tsuk",
      "ish"
    ],
    [
      "▁Tsukish",
      "ir"
    ],
    [
      "▁Tsukishir",
      "o"
    ],
    [
      "▁to",
      "t"
    ],
    [
      "es",
      "s,"
    ],
    [
      "▁rem",
      "ember"
    ],
    [
      "▁w",
      "in"
    ],
    [
      "▁thr",
      "ow"
    ],
    [
      "▁pr",
      "ior"
    ],
    [
      "▁e",
      "ither"
    ],
    [
      "▁whi",
      "ch"
    ],
    [
      "▁H",
      "on"
    ],
    [
      "▁Hon",
      "ami"
    ],
    [
      "▁start",
      "ing"
    ],
    [
      "▁Ichinose",
      "-san"
    ],
    [
      "ic",
      "t"
    ],
    [
      "▁Sakayanagi",
      "-san"
    ],
    [
      "▁H",
      "er"
    ],
    [
      "▁be",
      "at"
    ],
    [
      "▁mix",
      "er."
    ],
    [
      "▁su",
      "gg"
    ],
    [
      "▁sugg",
      "est"
    ],
    [
      "▁un",
      "it"
    ],
    [
      "▁lead",
      "er,"
    ],
    [
      "▁decid",
      "ed"
    ],
    [
      "▁id",
      "i"
    ],
    [
      "▁idi",
      "ot"
    ],
    [
      "ic",
      "ip"
    ],
    [
      "▁on",
      "es"
    ],
    [
      "▁r",
      "u"
    ],
    [
      "▁say",
      "ing"
    ],
    [
      "▁happen",
      "s,"
    ],
    [
      "▁arr",
      "iv"
    ],
    [
      "▁N",
      "ot"
    ],
    [
      "▁way",
      "!"
    ],
    [
      "m",
      "en"
    ],
    [
      "▁up",
      "per"
    ],
    [
      "▁out",
      "ta"
    ],
    [
      "k",
      "."
    ],
    [
      "▁d",
      "um"
    ],
    [
      "▁dum",
      "b"
    ],
    [
      "▁who",
      "'d"
    ],
    [
      "a",
      "pp"
    ],
    [
      "▁fo",
      "ot"
    ],
    [
      "qu",
      "e"
    ],
    [
      "▁m",
      "us"
    ],
    [
      "▁mus",
      "c"
    ],
    [
      "▁musc",
      "le"
    ],
    [
      "▁b",
      "are"
    ],
    [
      "▁I",
      "sh"
    ],
    [
      "o",
      "pping"
    ],
    [
      "▁him",
      ","
    ],
    [
      "an",
      "c"
    ],
    [
      "▁g",
      "ain"
    ],
    [
      "if",
      "y"
    ],
    [
      "▁fight",
      "."
    ],
    [
      "▁U",
      "n"
    ],
    [
      "▁c",
      "alm"
    ],
    [
      "▁Ayanokoji",
      "'s"
    ],
    [
      "▁going",
      ","
    ],
    [
      "▁lat",
      "er,"
    ],
    [
      "▁soon",
      "er"
    ],
    [
      "▁re",
      "ve"
    ],
    [
      "▁reve",
      "al"
    ],
    [
      "▁exp",
      "l"
    ],
    [
      "▁expl",
      "an"
    ],
    [
      "▁explan",
      "ation"
    ],
    [
      "▁we",
      "'ve"
    ],
    [
      "▁am",
      "azing"
    ],
    [
      "▁en",
      "em"
    ],
    [
      "▁enem",
      "y."
    ],
    [
      "an",
      "ce."
    ],
    [
      "▁end",
      "."
    ],
    [
      "▁W",
      "-W"
    ],
    [
      "▁certain",
      "ly"
    ],
    [
      "▁2",
      "0"
    ],
    [
      "▁20",
      "-"
    ],
    [
      "▁20-",
      "m"
    ],
    [
      "▁20-m",
      "illion"
    ],
    [
      "▁abs",
      "urd"
    ],
    [
      "▁ro",
      "ad"
    ],
    [
      "▁g",
      "l"
    ],
    [
      "▁summ",
      "er"
    ],
    [
      "d",
      "er"
    ],
    [
      "▁Got",
      "cha."
    ],
    [
      "▁re",
      "ach"
    ],
    [
      "b",
      "ed"
    ],
    [
      "▁T",
      "wo"
    ],
    [
      "▁term",
      "s"
    ],
    [
      "▁Horikita-senpai",
      "."
    ],
    [
      "▁agreem",
      "ent."
    ],
    [
      "ive",
      "."
    ],
    [
      "▁fail",
      "s"
    ],
    [
      "▁p",
      "ain"
    ],
    [
      "▁penal",
      "t"
    ],
    [
      "▁penalt",
      "y."
    ],
    [
      "▁classmat",
      "es."
    ],
    [
      "r",
      "ac"
    ],
    [
      "▁play",
      "ing"
    ],
    [
      "▁field",
      "."
    ],
    [
      "▁T",
      "ake"
    ],
    [
      "▁He",
      "y"
    ],
    [
      "▁fill",
      "ed"
    ],
    [
      "▁in",
      "."
    ],
    [
      "▁Sh",
      "ut"
    ],
    [
      "▁b",
      "ow"
    ],
    [
      "▁u",
      "s,"
    ],
    [
      "▁off",
      "ered"
    ],
    [
      "▁Sorr",
      "y."
    ],
    [
      "ing",
      "?"
    ],
    [
      "▁they",
      "'d"
    ],
    [
      "▁April",
      "."
    ],
    [
      "▁A",
      "pp"
    ],
    [
      "▁App",
      "are"
    ],
    [
      "▁Appare",
      "n"
    ],
    [
      "▁Apparen",
      "t"
    ],
    [
      "▁Apparent",
      "ly,"
    ],
    [
      "▁out",
      "?"
    ],
    [
      "▁gr",
      "at"
    ],
    [
      "▁grat",
      "itud"
    ],
    [
      "▁grateful",
      "."
    ],
    [
      "▁stud",
      "ies"
    ],
    [
      "▁mean",
      "..."
    ],
    [
      "▁late",
      "ly,"
    ],
    [
      "▁mot",
      "iv"
    ],
    [
      "▁there",
      "?"
    ],
    [
      "▁y",
      "ea"
    ],
    [
      "▁boy",
      "friend"
    ],
    [
      "▁tomorrow",
      "?"
    ],
    [
      "▁h",
      "ang"
    ],
    [
      "▁K",
      "o"
    ],
    [
      "▁Ko",
      "en"
    ],
    [
      "▁Koen",
      "ji"
    ],
    [
      "▁eas",
      "ily"
    ],
    [
      "▁pass",
      "ing"
    ]
  ],
  "piece_to_id": {
    "<unk>": 0,
    "!": 1,
    "\"": 2,
    "#": 3,
    "%": 4,
    "'": 5,
    "(": 6,
    ")": 7,
    "*": 8,
    "+": 9,
    ",": 10,
    "-": 11,
    ".": 12,
    "/": 13,
    "0": 14,
    "1": 15,
    "2": 16,
    "3": 17,
    "4": 18,
    "5": 19,
    "6": 20,
    "7": 21,
    ":": 22,
    "=": 23,
    "?": 24,
    "A": 25,
    "B": 26,
    "C": 27,
    "D": 28,
    "E": 29,
    "F": 30,
    "G": 31,
    "H": 32,
    "I": 33,
    "J": 34,
    "K": 35,
    "L": 36,
    "M": 37,
    "N": 38,
    "O": 39,
    "P": 40,
    "R": 41,
    "S": 42,
    "T": 43,
    "U": 44,
    "V": 45,
    "W": 46,
    "Y": 47,
    "a": 48,
    "b": 49,
    "c": 50,
    "d": 51,
    "e": 52,
    "f": 53,
    "g": 54,
    "h": 55,
    "i": 56,
    "j": 57,
    "k": 58,
    "l": 59,
    "m": 60,
    "n": 61,
    "o": 62,
    "p": 63,
    "q": 64,
    "r": 65,
    "s": 66,
    "t": 67,
    "u": 68,
    "v": 69,
    "w": 70,
    "x": 71,
    "y": 72,
    "z": 73,
    "—": 74,
    "▁": 75,
    "▁t": 76,
    "ou": 77,
    "▁a": 78,
    "▁th": 79,
    "in": 80,
    "▁s": 81,
    "▁w": 82,
    "re": 83,
    "▁I": 84,
    "en": 85,
    "▁y": 86,
    "at": 87,
    "▁you": 88,
    "on": 89,
    "er": 90,
    "▁m": 91,
    "▁to": 92,
    "▁the": 93,
    "ll": 94,
    "▁h": 95,
    "▁b": 96,
    "it": 97,
    "an": 98,
    "ing": 99,
    "▁c": 100,
    "▁f": 101,
    "▁p": 102,
    "or": 103,
    "▁d": 104,
    "as": 105,
    "es": 106,
    "ar": 107,
    "is": 108,
    "▁o": 109,
    "ed": 110,
    "▁g": 111,
    "▁be": 112,
    "ve": 113,
    "'s": 114,
    "▁l": 115,
    "▁of": 116,
    "'t": 117,
    "om": 118,
    "▁T": 119,
    "..": 120,
    "▁Y": 121,
    "▁I'": 122,
    "▁A": 123,
    "ent": 124,
    "ow": 125,
    "▁W": 126,
    "▁n": 127,
    "et": 128,
    "▁an": 129,
    "id": 130,
    "ot": 131,
    "al": 132,
    "▁st": 133,
    "▁that": 134,
    "▁in": 135,
    "▁u": 136,
    "▁e": 137,
    "st": 138,
    "▁H": 139,
    "▁me": 140,
    "▁Th": 141,
    "ay": 142,
    "▁You": 143,
    "gh": 144,
    "▁S": 145,
    "ld": 146,
    "▁it": 147,
    "ut": 148,
    "ith": 149,
    "▁we": 150,
    "▁for": 151,
    "e.": 152,
    "▁on": 153,
    "▁with": 154,
    "ass": 155,
    "ud": 156,
    "ir": 157,
    "▁he": 158,
    "ch": 159,
    "▁wh": 160,
    "lass": 161,
    "▁re": 162,
    "le": 163,
    "ke": 164,
    "ad": 165,
    "os": 166,
    "out": 167,
    "ion": 168,
    "ill": 169,
    "▁Wh": 170,
    "ould": 171,
    "▁r": 172,
    "un": 173,
    "▁is": 174,
    "ec": 175,
    "...": 176,
    "art": 177,
    "ok": 178,
    "ght": 179,
    "▁I'm": 180,
    "▁ha": 181,
    "▁your": 182,
    "n't": 183,
    "ic": 184,
    "'re": 185,
    "im": 186,
    "▁C": 187,
    "on't": 188,
    "▁and": 189,
    "▁stud": 190,
    "▁B": 191,
    "ight": 192,
    "▁se": 193,
    "▁as": 194,
    "est": 195,
    "▁ex": 196,
    "ly": 197,
    "if": 198,
    "ce": 199,
    "ear": 200,
    "▁up": 201,
    "▁student": 202,
    "▁this": 203,
    "s.": 204,
    "▁my": 205,
    "nd": 206,
    "ust": 207,
    "all": 208,
    "ome": 209,
    "▁ab": 210,
    "▁part": 211,
    "▁k": 212,
    "em": 213,
    "ant": 214,
    "ore": 215,
    "▁The": 216,
    "ell": 217,
    "-k": 218,
    "-kun": 219,
    "▁do": 220,
    "▁all": 221,
    "▁su": 222,
    "▁class": 223,
    "▁j": 224,
    "our": 225,
    "▁at": 226,
    "▁will": 227,
    "ink": 228,
    "se": 229,
    "ak": 230,
    "▁I'll": 231,
    "▁N": 232,
    "ol": 233,
    "ac": 234,
    "▁not": 235,
    "am": 236,
    "ver": 237,
    "▁have": 238,
    "pp": 239,
    "▁go": 240,
    "▁think": 241,
    "▁ne": 242,
    "▁get": 243,
    "▁exp": 244,
    "▁What": 245,
    "ner": 246,
    "▁It": 247,
    "▁But": 248,
    "pa": 249,
    "▁are": 250,
    "▁sh": 251,
    "▁can": 252,
    "her": 253,
    "ro": 254,
    "▁partner": 255,
    "▁That": 256,
    "▁did": 257,
    "ter": 258,
    "-s": 259,
    "ate": 260,
    "ur": 261,
    "▁was": 262,
    "ji": 263,
    "ven": 264,
    "▁li": 265,
    "▁don't": 266,
    "osen": 267,
    "▁tr": 268,
    "oko": 269,
    "▁fr": 270,
    "irst": 271,
    "▁kn": 272,
    "▁R": 273,
    "▁Hosen": 274,
    "▁about": 275,
    "▁Ay": 276,
    "anoko": 277,
    "anokoji": 278,
    "ally": 279,
    "one": 280,
    "il": 281,
    "▁Ayanokoji": 282,
    "▁first": 283,
    "▁out": 284,
    "▁Class": 285,
    "ake": 286,
    "▁wor": 287,
    "▁would": 288,
    "ation": 289,
    "▁D": 290,
    "-y": 291,
    "end": 292,
    "▁want": 293,
    "es.": 294,
    "▁so": 295,
    "-year": 296,
    "▁if": 297,
    "y.": 298,
    "▁just": 299,
    "ook": 300,
    "▁O": 301,
    "▁any": 302,
    "ard": 303,
    "▁If": 304,
    "ag": 305,
    "enpa": 306,
    "enpai": 307,
    "▁our": 308,
    "ing.": 309,
    "ul": 310,
    "▁like": 311,
    "▁test": 312,
    "qu": 313,
    "ain": 314,
    "▁sp": 315,
    "▁but": 316,
    "▁what": 317,
    "▁right": 318,
    "ed.": 319,
    "▁off": 320,
    "s,": 321,
    "ea": 322,
    "ect": 323,
    "▁We": 324,
    "ind": 325,
    "▁from": 326,
    "▁K": 327,
    "▁now": 328,
    "and": 329,
    "▁ac": 330,
    "e,": 331,
    "▁That's": 332,
    "▁you're": 333,
    "▁didn't": 334,
    "▁some": 335,
    "▁He": 336,
    "ie": 337,
    "▁con": 338,
    "▁first-year": 339,
    "'ll": 340,
    "▁here": 341,
    "ive": 342,
    "op": 343,
    "▁pre": 344,
    "▁ch": 345,
    "ool": 346,
    "ial": 347,
    "▁were": 348,
    "▁who": 349,
    "ment": 350,
    "h,": 351,
    "▁know": 352,
    "▁there": 353,
    "▁M": 354,
    "ite": 355,
    "▁us": 356,
    "th": 357,
    "-senpai": 358,
    "▁then": 359,
    "orr": 360,
    "ty": 361,
    "▁sc": 362,
    "oun": 363,
    "▁pro": 364,
    "▁You're": 365,
    "▁students": 366,
    "iz": 367,
    "red": 368,
    "ough": 369,
    "▁they": 370,
    "▁com": 371,
    "▁I've": 372,
    "▁And": 373,
    "▁you.": 374,
    "ik": 375,
    "▁L": 376,
    "ong": 377,
    "iv": 378,
    "▁see": 379,
    "▁one": 380,
    "▁more": 381,
    "act": 382,
    "▁Hosen-kun": 383,
    "▁how": 384,
    "?!": 385,
    "▁un": 386,
    "▁work": 387,
    "▁P": 388,
    "'d": 389,
    "ose": 390,
    "▁him": 391,
    "▁per": 392,
    "alk": 393,
    "▁int": 394,
    "▁way": 395,
    "▁won't": 396,
    "▁It's": 397,
    "▁al": 398,
    "▁sch": 399,
    "um": 400,
    "▁pl": 401,
    "us": 402,
    "▁tim": 403,
    "ita": 404,
    "ess": 405,
    "ble": 406,
    "▁should": 407,
    "y,": 408,
    "▁expell": 409,
    "ig": 410,
    "▁school": 411,
    "▁im": 412,
    "▁even": 413,
    "▁So": 414,
    "'ve": 415,
    "ieve": 416,
    "ance": 417,
    "▁bet": 418,
    "▁Hor": 419,
    "▁Horik": 420,
    "▁Horikita": 421,
    "▁ask": 422,
    "▁them": 423,
    "▁than": 424,
    "od": 425,
    "▁going": 426,
    "▁got": 427,
    "▁make": 428,
    "▁it's": 429,
    "aw": 430,
    "▁de": 431,
    "▁br": 432,
    "▁year": 433,
    "▁mean": 434,
    "oin": 435,
    "ack": 436,
    "▁en": 437,
    "▁seem": 438,
    "ous": 439,
    "▁sure": 440,
    "▁by": 441,
    "ame": 442,
    "ecial": 443,
    "▁talk": 444,
    "▁it.": 445,
    "▁ag": 446,
    "oom": 447,
    "et's": 448,
    "00": 449,
    "▁gr": 450,
    "▁offer": 451,
    "very": 452,
    "▁look": 453,
    "▁af": 454,
    "▁Well": 455,
    "ound": 456,
    "▁F": 457,
    "eth": 458,
    "▁app": 459,
    "▁score": 460,
    "▁her": 461,
    "▁special": 462,
    "▁coun": 463,
    "▁has": 464,
    "▁that.": 465,
    "▁Sh": 466,
    "▁E": 467,
    "▁le": 468,
    "el": 469,
    "es,": 470,
    "▁G": 471,
    "▁White": 472,
    "▁Room": 473,
    "▁say": 474,
    "▁really": 475,
    "▁qu": 476,
    "ed,": 477,
    "nder": 478,
    "▁Sud": 479,
    "▁Sudo": 480,
    "own": 481,
    "▁someone": 482,
    "ting": 483,
    "▁Yes.": 484,
    "▁need": 485,
    "air": 486,
    "ip": 487,
    "▁thing": 488,
    "▁ot": 489,
    "▁other": 490,
    "▁you?": 491,
    "▁come": 492,
    "ang": 493,
    "ion.": 494,
    "ure": 495,
    "adem": 496,
    "ademic": 497,
    "▁How": 498,
    "▁first-years": 499,
    "-san": 500,
    "▁imp": 501,
    "sh": 502,
    "▁I'd": 503,
    "▁rat": 504,
    "▁hel": 505,
    "▁help": 506,
    "ast": 507,
    "ide": 508,
    "na": 509,
    "▁mo": 510,
    "sel": 511,
    "▁There": 512,
    "▁right?": 513,
    "▁Let's": 514,
    "▁sec": 515,
    "ond": 516,
    "▁or": 517,
    "▁under": 518,
    "▁cook": 519,
    "▁only": 520,
    "▁Ayanokoji-senpai": 521,
    "▁Nan": 522,
    "▁Nanas": 523,
    "ere": 524,
    "▁mad": 525,
    "▁now.": 526,
    "▁Yea": 527,
    "▁why": 528,
    "aid": 529,
    "▁start": 530,
    "pt": 531,
    "▁som": 532,
    "▁me.": 533,
    "ort": 534,
    "ving": 535,
    "▁too": 536,
    "get": 537,
    "▁Ac": 538,
    "awa": 539,
    "▁may": 540,
    "su": 541,
    "▁str": 542,
    "▁counc": 543,
    "▁council": 544,
    "ep": 545,
    "▁dis": 546,
    "are": 547,
    "h?": 548,
    "▁been": 549,
    "chieve": 550,
    "▁no": 551,
    "▁someth": 552,
    "▁res": 553,
    "ward": 554,
    "▁1": 555,
    "▁could": 556,
    "iy": 557,
    "▁down": 558,
    "▁pr": 559,
    "uz": 560,
    "uzun": 561,
    "▁his": 562,
    "▁pair": 563,
    "use": 564,
    "▁well": 565,
    "▁see.": 566,
    "▁back": 567,
    "▁sorr": 568,
    "▁seems": 569,
    "er.": 570,
    "▁you,": 571,
    "▁No": 572,
    "chievement": 573,
    "▁Oh,": 574,
    "other": 575,
    "e?": 576,
    "▁find": 577,
    "ach": 578,
    "sid": 579,
    "▁act": 580,
    "▁end": 581,
    "▁fe": 582,
    "▁att": 583,
    "▁their": 584,
    "uation": 585,
    "▁take": 586,
    "ought": 587,
    "▁anyth": 588,
    "▁ke": 589,
    "▁then?": 590,
    "got": 591,
    "▁very": 592,
    "▁In": 593,
    "▁after": 594,
    "▁it?": 595,
    "▁expect": 596,
    "tty": 597,
    "▁haven": 598,
    "▁haven't": 599,
    "ated": 600,
    "▁when": 601,
    "▁something": 602,
    "▁try": 603,
    "▁comp": 604,
    "ious": 605,
    "▁mu": 606,
    "▁much": 607,
    "▁you'll": 608,
    "▁gu": 609,
    "▁better": 610,
    "▁ar": 611,
    "▁Hey,": 612,
    "▁Academic": 613,
    "▁Achievement": 614,
    "▁bef": 615,
    "▁before": 616,
    "▁fin": 617,
    "ank": 618,
    "itt": 619,
    "▁over": 620,
    "▁Ayanokoji-kun": 621,
    "▁cour": 622,
    "▁does": 623,
    "▁Suzun": 624,
    "▁fight": 625,
    "▁wouldn't": 626,
    "oc": 627,
    "▁pay": 628,
    "▁keep": 629,
    "▁well.": 630,
    "▁pers": 631,
    "▁person": 632,
    "▁meet": 633,
    "▁Yes,": 634,
    "▁Well,": 635,
    "▁happ": 636,
    "▁mak": 637,
    "▁can't": 638,
    "bl": 639,
    "day": 640,
    "▁day": 641,
    "▁hand": 642,
    "ert": 643,
    "▁second": 644,
    "▁give": 645,
    "ually": 646,
    "com": 647,
    "▁head": 648,
    "▁v": 649,
    "▁knif": 650,
    "een": 651,
    "▁Ry": 652,
    "▁Ryu": 653,
    "▁Ryuen": 654,
    "▁fa": 655,
    "oint": 656,
    "▁trust": 657,
    "▁negot": 658,
    "▁negoti": 659,
    "▁time": 660,
    "▁that's": 661,
    "▁said": 662,
    "▁pretty": 663,
    "▁am": 664,
    "▁Why": 665,
    "▁Is": 666,
    "▁ow": 667,
    "▁being": 668,
    "▁plan": 669,
    "▁that?": 670,
    "ize": 671,
    "ist": 672,
    "▁hard": 673,
    "▁real": 674,
    "▁here.": 675,
    "▁She": 676,
    "▁she": 677,
    "▁U": 678,
    "reat": 679,
    "▁test.": 680,
    "igh": 681,
    "▁thr": 682,
    "ish": 683,
    "▁expelled": 684,
    "ct": 685,
    "▁let": 686,
    "▁pe": 687,
    "▁peop": 688,
    "▁people": 689,
    "▁bec": 690,
    "ff": 691,
    "ful": 692,
    "▁point": 693,
    "a.": 694,
    "▁Nanase": 695,
    "▁ref": 696,
    "▁me?": 697,
    "▁rather": 698,
    "▁cont": 699,
    "▁made": 700,
    "▁enough": 701,
    "erm": 702,
    "ince": 703,
    "urn": 704,
    "uh?": 705,
    "ies": 706,
    "iend": 707,
    "▁ap": 708,
    "▁mat": 709,
    "▁id": 710,
    "▁own": 711,
    "per": 712,
    "▁1-": 713,
    "fect": 714,
    "wo": 715,
    "▁lot": 716,
    "▁To": 717,
    "▁Senpai": 718,
    "ence": 719,
    "▁This": 720,
    "▁sk": 721,
    "▁dec": 722,
    "self": 723,
    "▁min": 724,
    "▁2": 725,
    "ating": 726,
    "▁lo": 727,
    "▁ad": 728,
    "ren": 729,
    "icul": 730,
    "ber": 731,
    "▁agre": 732,
    "qual": 733,
    "ity": 734,
    "ual": 735,
    "sident": 736,
    "▁Nag": 737,
    "▁Nagum": 738,
    "▁Nagumo": 739,
    "▁thought": 740,
    "▁anything": 741,
    "▁classm": 742,
    "▁play": 743,
    "▁we're": 744,
    "amn": 745,
    "xt": 746,
    "▁Sorr": 747,
    "▁Yeah,": 748,
    "▁good": 749,
    "▁Would": 750,
    "▁supp": 751,
    "▁happen": 752,
    "▁hur": 753,
    "▁forward": 754,
    "▁put": 755,
    "▁again": 756,
    "ity.": 757,
    "▁bel": 758,
    "▁there's": 759,
    "▁bas": 760,
    "▁Pre": 761,
    "▁There's": 762,
    "ertain": 763,
    "▁then.": 764,
    "▁second-year": 765,
    "▁litt": 766,
    "▁little": 767,
    "▁gon": 768,
    "▁gonna": 769,
    "▁join": 770,
    "▁ass": 771,
    "▁Tsu": 772,
    "▁actually": 773,
    "▁able": 774,
    "ady": 775,
    "▁course": 776,
    "▁feel": 777,
    "▁Do": 778,
    "ice": 779,
    "h.": 780,
    "oss": 781,
    "▁high": 782,
    "▁alli": 783,
    "▁They": 784,
    "ower": 785,
    "▁those": 786,
    "ship": 787,
    "az": 788,
    "ead": 789,
    "▁into": 790,
    "pr": 791,
    "ly,": 792,
    "▁stu": 793,
    "▁huh?": 794,
    "▁best": 795,
    "▁bo": 796,
    "▁yet": 797,
    "ait": 798,
    "▁We're": 799,
    "▁May": 800,
    "▁As": 801,
    "▁Are": 802,
    "▁proble": 803,
    "▁problem": 804,
    "▁believe": 805,
    "▁inter": 806,
    "▁kind": 807,
    "▁might": 808,
    "▁No,": 809,
    "▁around": 810,
    "kay": 811,
    "▁el": 812,
    "▁quest": 813,
    "▁Your": 814,
    "▁another": 815,
    "▁Am": 816,
    "▁Amas": 817,
    "▁Amasawa": 818,
    "aru": 819,
    "▁Kiy": 820,
    "▁Kiyot": 821,
    "▁Kiyotak": 822,
    "lain": 823,
    "be": 824,
    "▁Sudo-kun": 825,
    "▁had": 826,
    "▁lat": 827,
    "▁next": 828,
    "▁skill": 829,
    "t,": 830,
    "▁cur": 831,
    "se.": 832,
    "▁bad": 833,
    "orm": 834,
    "▁things": 835,
    "ave": 836,
    "▁alre": 837,
    "ise": 838,
    "ami": 839,
    "▁same": 840,
    "e!": 841,
    "▁alliance": 842,
    "ituation": 843,
    "ab": 844,
    "▁equal": 845,
    "ause": 846,
    "▁fail": 847,
    "▁classmat": 848,
    "▁bre": 849,
    "▁break": 850,
    "▁bu": 851,
    "▁damn": 852,
    "ap": 853,
    "▁talking": 854,
    "▁Horikita-senpai": 855,
    "▁me,": 856,
    "▁sorry": 857,
    "ions": 858,
    "▁cle": 859,
    "▁Did": 860,
    "ta": 861,
    "▁Then": 862,
    "▁wan": 863,
    "▁wanna": 864,
    "▁lead": 865,
    "▁chang": 866,
    "▁toget": 867,
    "▁together": 868,
    "▁he's": 869,
    "▁now,": 870,
    "oth": 871,
    "▁guess": 872,
    "ves": 873,
    "▁you'd": 874,
    "▁it,": 875,
    "▁never": 876,
    "▁fine.": 877,
    "▁Ich": 878,
    "▁Karu": 879,
    "▁Karuiz": 880,
    "▁Karuizawa": 881,
    "i.": 882,
    "▁sl": 883,
    "ef": 884,
    "ce.": 885,
    "▁sm": 886,
    "er,": 887,
    "▁partners": 888,
    "▁underst": 889,
    "▁understand": 890,
    "ge": 891,
    "▁myself": 892,
    "▁still": 893,
    "▁love": 894,
    "▁already": 895,
    "▁getting": 896,
    "▁big": 897,
    "▁Right": 898,
    "age": 899,
    "▁without": 900,
    "▁told": 901,
    "cept": 902,
    "▁deal": 903,
    "▁through": 904,
    "▁far": 905,
    "way": 906,
    "▁co": 907,
    "▁hop": 908,
    "▁class.": 909,
    "▁betw": 910,
    "▁between": 911,
    "▁\"": 912,
    "▁ev": 913,
    "ivid": 914,
    "ividual": 915,
    "▁perfect": 916,
    "▁isn't": 917,
    "▁tru": 918,
    "ny": 919,
    "enal": 920,
    "▁call": 921,
    "▁doing": 922,
    "▁right.": 923,
    "▁Don't": 924,
    "leas": 925,
    "▁you've": 926,
    "ered": 927,
    "ick": 928,
    "orn": 929,
    "▁cl": 930,
    "▁since": 931,
    "▁know.": 932,
    "▁gir": 933,
    "▁girl": 934,
    "oup": 935,
    "▁side": 936,
    "▁tom": 937,
    "▁found": 938,
    "▁every": 939,
    "▁suppos": 940,
    "▁making": 941,
    "res": 942,
    "▁idea": 943,
    "▁det": 944,
    "▁compet": 945,
    "▁moving": 946,
    "▁last": 947,
    "▁1-D": 948,
    "▁Go": 949,
    "ved": 950,
    "ble.": 951,
    "▁chance": 952,
    "▁ho": 953,
    "▁two": 954,
    "gg": 955,
    "▁expul": 956,
    "▁expuls": 957,
    "iate": 958,
    "▁care": 959,
    "▁ent": 960,
    "▁went": 961,
    "▁hair": 962,
    "▁Thank": 963,
    "▁Kiyotaka": 964,
    "▁cooking": 965,
    "▁St": 966,
    "▁quite": 967,
    "▁such": 968,
    "▁shouldn't": 969,
    "▁form": 970,
    "▁Sak": 971,
    "▁working": 972,
    "▁appro": 973,
    "kn": 974,
    "▁minut": 975,
    "▁Tsub": 976,
    "ason": 977,
    "ata": 978,
    "▁Have": 979,
    "▁J": 980,
    "▁beh": 981,
    "▁fig": 982,
    "▁ca": 983,
    "▁hell": 984,
    "▁too.": 985,
    "ings": 986,
    "▁whi": 987,
    "▁anyone": 988,
    ",00": 989,
    ",000": 990,
    "▁Yeah.": 991,
    "▁exce": 992,
    "▁excell": 993,
    "▁excellent": 994,
    "ossi": 995,
    "▁rank": 996,
    "▁strong": 997,
    "ix": 998,
    "▁them.": 999,
    "ition": 1000,
    "▁situation": 1001,
    "▁set": 1002,
    "ine": 1003,
    "ener": 1004,
    "▁Ryuen-kun": 1005,
    "▁fo": 1006,
    "▁bl": 1007,
    "vel": 1008,
    "ire": 1009,
    "▁wr": 1010,
    "▁ind": 1011,
    "▁certain": 1012,
    "▁expelled,": 1013,
    "▁knife": 1014,
    "ock": 1015,
    "▁cas": 1016,
    "▁penal": 1017,
    "▁rul": 1018,
    "▁rel": 1019,
    "▁prepa": 1020,
    "▁time.": 1021,
    "▁ph": 1022,
    "one.": 1023,
    "▁spe": 1024,
    "▁though": 1025,
    "▁clear": 1026,
    "▁long": 1027,
    "▁asked": 1028,
    "▁out,": 1029,
    "▁Who": 1030,
    "▁show": 1031,
    "▁By": 1032,
    "▁group": 1033,
    "▁there.": 1034,
    "▁apart": 1035,
    "orrow": 1036,
    "▁out.": 1037,
    "▁matter": 1038,
    "▁must": 1039,
    "▁For": 1040,
    "▁this.": 1041,
    "▁hurt": 1042,
    "▁des": 1043,
    "▁become": 1044,
    "▁ser": 1045,
    "den": 1046,
    "▁mind": 1047,
    "▁gam": 1048,
    "▁als": 1049,
    "▁also": 1050,
    "▁this,": 1051,
    "▁Well...": 1052,
    "▁man": 1053,
    "▁sorry.": 1054,
    "▁tell": 1055,
    "▁What's": 1056,
    "es?": 1057,
    "▁having": 1058,
    "▁bit": 1059,
    "▁world": 1060,
    "▁partner.": 1061,
    "▁thir": 1062,
    "e-": 1063,
    "▁up.": 1064,
    "▁Sakay": 1065,
    "▁Sakayan": 1066,
    "▁Sakayanag": 1067,
    "▁expelled.": 1068,
    "▁approach": 1069,
    "▁turn": 1070,
    "udg": 1071,
    "know": 1072,
    "▁inst": 1073,
    "▁aren't": 1074,
    "▁reg": 1075,
    "ate,": 1076,
    "▁reason": 1077,
    "▁second-years": 1078,
    "▁Tr": 1079,
    "ation.": 1080,
    "ly.": 1081,
    "▁friend": 1082,
    "ew": 1083,
    "▁behind": 1084,
    "ign": 1085,
    "▁so.": 1086,
    "▁doesn't": 1087,
    "▁that,": 1088,
    "ush": 1089,
    "agami": 1090,
    "▁interact": 1091,
    "uc": 1092,
    "ract": 1093,
    "ten": 1094,
    "▁willing": 1095,
    "▁Could": 1096,
    "▁5": 1097,
    "t.": 1098,
    "▁most": 1099,
    "▁mone": 1100,
    "▁money": 1101,
    "▁word": 1102,
    "▁men": 1103,
    "▁us.": 1104,
    "▁allow": 1105,
    "og": 1106,
    "man": 1107,
    "▁great": 1108,
    "▁negotiation": 1109,
    "▁tar": 1110,
    "▁target": 1111,
    "▁inv": 1112,
    "▁import": 1113,
    "▁important": 1114,
    "ateg": 1115,
    "▁Even": 1116,
    "▁prop": 1117,
    "▁hope": 1118,
    "erest": 1119,
    "lect": 1120,
    "▁scores": 1121,
    "ility": 1122,
    "aluation": 1123,
    "▁based": 1124,
    "▁individual": 1125,
    "ents": 1126,
    "▁classes": 1127,
    "▁first-years.": 1128,
    "-W": 1129,
    "▁Ichin": 1130,
    "▁Ichinose": 1131,
    "▁mix": 1132,
    "▁stop": 1133,
    "▁President": 1134,
    "▁mean?": 1135,
    "▁wanted": 1136,
    "▁lower": 1137,
    "▁class,": 1138,
    "ild": 1139,
    "▁relation": 1140,
    "▁relationship": 1141,
    "▁Hosen-kun.": 1142,
    "▁prepared": 1143,
    "▁disc": 1144,
    "▁V": 1145,
    "▁Ver": 1146,
    "▁Very": 1147,
    "▁speak": 1148,
    "▁though.": 1149,
    "▁contact": 1150,
    "▁least": 1151,
    "▁intent": 1152,
    "▁#": 1153,
    "ermin": 1154,
    "▁pick": 1155,
    "▁morn": 1156,
    "▁way,": 1157,
    "▁study": 1158,
    "▁boy": 1159,
    "fr": 1160,
    "friend": 1161,
    "▁tomorrow": 1162,
    "▁We'll": 1163,
    "▁eas": 1164,
    "▁pass": 1165,
    "▁grad": 1166,
    "▁suppose.": 1167,
    "▁force": 1168,
    "▁meth": 1169,
    "▁method": 1170,
    "▁sid": 1171,
    "▁change": 1172,
    "▁aw": 1173,
    "▁way.": 1174,
    "▁both": 1175,
    "▁we'll": 1176,
    "▁Can": 1177,
    "▁handle": 1178,
    "ure.": 1179,
    "▁do.": 1180,
    "▁they're": 1181,
    "▁Nanase.": 1182,
    "▁time,": 1183,
    "▁careful": 1184,
    "▁Okay": 1185,
    "▁else": 1186,
    "y!": 1187,
    "▁coming": 1188,
    "▁here,": 1189,
    "▁me!": 1190,
    "▁Ke": 1191,
    "▁explain": 1192,
    "▁Hey.": 1193,
    "▁She's": 1194,
    "ike": 1195,
    "▁all.": 1196,
    "▁Still": 1197,
    "vious": 1198,
    "▁on.": 1199,
    "▁judg": 1200,
    "led": 1201,
    "aki": 1202,
    "▁about?": 1203,
    "▁but...": 1204,
    "▁When": 1205,
    "▁makes": 1206,
    "▁Be": 1207,
    "▁Just": 1208,
    "▁My": 1209,
    "▁knew": 1210,
    "▁He's": 1211,
    "▁Suzune": 1212,
    "▁Ayanokoji.": 1213,
    "ured": 1214,
    "▁trou": 1215,
    "▁cr": 1216,
    "▁Kush": 1217,
    "▁Kushid": 1218,
    "▁Kushida": 1219,
    "idd": 1220,
    "▁Yagami": 1221,
    "▁smart": 1222,
    "▁sur": 1223,
    "▁unt": 1224,
    "▁until": 1225,
    "coming": 1226,
    "▁Right?": 1227,
    "ves.": 1228,
    "▁We've": 1229,
    "▁requ": 1230,
    "ine,": 1231,
    "▁attem": 1232,
    "▁attempt": 1233,
    "▁mill": 1234,
    "00,000": 1235,
    "▁possi": 1236,
    "ys": 1237,
    "ysic": 1238,
    "ever": 1239,
    "▁Suzune.": 1240,
    "ced": 1241,
    "▁new": 1242,
    "▁curren": 1243,
    "▁current": 1244,
    "ing,": 1245,
    "▁apol": 1246,
    "▁apolog": 1247,
    "▁few": 1248,
    "▁each": 1249,
    "▁decid": 1250,
    "▁agree": 1251,
    "ester": 1252,
    "esterday": 1253,
    "▁brand": 1254,
    "▁mon": 1255,
    "al.": 1256,
    "▁stay": 1257,
    "pl": 1258,
    "▁stup": 1259,
    "▁stupid": 1260,
    "▁strateg": 1261,
    "▁ben": 1262,
    "llow": 1263,
    "▁bri": 1264,
    "▁we'd": 1265,
    "alm": 1266,
    "▁Y-": 1267,
    "▁Y-Y": 1268,
    "▁Sakayanagi": 1269,
    "▁today": 1270,
    "▁propos": 1271,
    "▁came": 1272,
    "▁ro": 1273,
    "▁lea": 1274,
    "▁leave": 1275,
    "ent.": 1276,
    "▁hid": 1277,
    "▁worr": 1278,
    "▁intend": 1279,
    "cha.": 1280,
    "▁OA": 1281,
    "▁OAA": 1282,
    "fic": 1283,
    "fici": 1284,
    "▁inc": 1285,
    "▁attend": 1286,
    "ior": 1287,
    "pect": 1288,
    "▁fighting": 1289,
    "▁president": 1290,
    "▁issu": 1291,
    "▁agreem": 1292,
    "ither": 1293,
    "▁fact": 1294,
    "▁classmates": 1295,
    "▁bring": 1296,
    "▁now?": 1297,
    "▁realize": 1298,
    "▁brother": 1299,
    "able": 1300,
    "▁term": 1301,
    "▁exc": 1302,
    "▁stab": 1303,
    "▁lear": 1304,
    "▁learn": 1305,
    "▁thing.": 1306,
    "▁because": 1307,
    "▁case,": 1308,
    "▁Any": 1309,
    "ers": 1310,
    "▁Ayanokoji-senpai.": 1311,
    "▁hasn't": 1312,
    "▁tak": 1313,
    "▁wants": 1314,
    "ield": 1315,
    "▁discus": 1316,
    "▁discuss": 1317,
    "▁fill": 1318,
    "▁person.": 1319,
    "▁Na": 1320,
    "▁refuse": 1321,
    "▁negotiate": 1322,
    "▁Where": 1323,
    "▁kill": 1324,
    "▁didn't.": 1325,
    "▁Call": 1326,
    "▁pleas": 1327,
    "▁But...": 1328,
    "▁Apr": 1329,
    "▁April": 1330,
    "▁chec": 1331,
    "▁check": 1332,
    "▁ret": 1333,
    "▁return": 1334,
    "▁stuff": 1335,
    "itud": 1336,
    "▁apartment": 1337,
    "-kun.": 1338,
    "▁hear": 1339,
    "ily": 1340,
    "▁partner,": 1341,
    "▁Bec": 1342,
    "▁Because": 1343,
    "-I": 1344,
    "▁wait": 1345,
    "▁conv": 1346,
    "ress": 1347,
    "▁determin": 1348,
    "▁Hosen-kun's": 1349,
    "▁thinking": 1350,
    "▁1-D.": 1351,
    "▁Wouldn't": 1352,
    "▁opp": 1353,
    "ortun": 1354,
    "▁class's": 1355,
    "olved": 1356,
    "▁aware": 1357,
    "▁game": 1358,
    "▁prove": 1359,
    "▁student.": 1360,
    "▁anything.": 1361,
    "▁Good": 1362,
    "by": 1363,
    "▁not.": 1364,
    "▁expulsion.": 1365,
    "▁seen": 1366,
    "▁Okay,": 1367,
    "▁let's": 1368,
    "▁lik": 1369,
    "▁C,": 1370,
    "▁stand": 1371,
    "▁enc": 1372,
    "▁sol": 1373,
    "each": 1374,
    "ess.": 1375,
    "▁Sorry,": 1376,
    "▁name": 1377,
    "here": 1378,
    "▁Maybe": 1379,
    "▁Senpai,": 1380,
    "▁ans": 1381,
    "▁answ": 1382,
    "▁Got": 1383,
    "▁Like": 1384,
    "▁said,": 1385,
    "▁third": 1386,
    "▁Sorry": 1387,
    "▁Se": 1388,
    "▁Still,": 1389,
    "one,": 1390,
    "▁rem": 1391,
    "▁You've": 1392,
    "▁approach.": 1393,
    "▁hold": 1394,
    "▁consid": 1395,
    "▁consider": 1396,
    "▁myself.": 1397,
    "▁instead": 1398,
    "▁2-": 1399,
    "▁2-D": 1400,
    "▁sud": 1401,
    "▁sudden": 1402,
    "▁regre": 1403,
    "▁Of": 1404,
    "▁course.": 1405,
    "▁sen": 1406,
    "▁Tru": 1407,
    "▁True.": 1408,
    "▁inf": 1409,
    "▁sel": 1410,
    "▁self": 1411,
    "▁again.": 1412,
    "▁go,": 1413,
    "▁Karuizawa-san": 1414,
    "▁Hir": 1415,
    "▁Hirata": 1416,
    "▁hon": 1417,
    "▁question": 1418,
    "▁asking": 1419,
    "▁adv": 1420,
    "▁meas": 1421,
    "▁Ayanokoji-kun's": 1422,
    "▁cool": 1423,
    "▁soon": 1424,
    "head": 1425,
    "▁figured": 1426,
    "▁stren": 1427,
    "▁streng": 1428,
    "▁strength": 1429,
    "▁can.": 1430,
    "▁wasn't": 1431,
    "▁while": 1432,
    "▁luc": 1433,
    "▁luck": 1434,
    "▁school,": 1435,
    "▁past": 1436,
    "er?": 1437,
    "▁adm": 1438,
    "▁oursel": 1439,
    "agg": 1440,
    "▁looking": 1441,
    "▁O-": 1442,
    "▁O-O": 1443,
    "▁upcoming": 1444,
    "ous.": 1445,
    "▁dif": 1446,
    "▁diff": 1447,
    "▁difficul": 1448,
    "▁fall": 1449,
    "antage": 1450,
    "▁use": 1451,
    "▁ext": 1452,
    "ult": 1453,
    "▁game.": 1454,
    "▁million.": 1455,
    "▁words,": 1456,
    "▁five": 1457,
    "pping": 1458,
    "▁Senpai!": 1459,
    "▁academic": 1460,
    "▁fun": 1461,
    "lic": 1462,
    "▁accept": 1463,
    "me": 1464,
    "ships": 1465,
    "▁num": 1466,
    "▁number": 1467,
    "▁along": 1468,
    "▁pos": 1469,
    "▁him.": 1470,
    "▁vi": 1471,
    "▁viol": 1472,
    "▁done": 1473,
    "vo": 1474,
    "void": 1475,
    "▁imag": 1476,
    "▁imagine": 1477,
    "▁ins": 1478,
    "▁yesterday": 1479,
    "▁these": 1480,
    "▁nice": 1481,
    "▁yum": 1482,
    "▁goong": 1483,
    "ift": 1484,
    "▁bought": 1485,
    "▁accom": 1486,
    "▁accompl": 1487,
    "▁gener": 1488,
    "ally,": 1489,
    "pic": 1490,
    "▁Tsubas": 1491,
    "▁Tell": 1492,
    "▁follow": 1493,
    "cess": 1494,
    "▁there,": 1495,
    "▁power": 1496,
    "▁Y-You": 1497,
    "▁up?": 1498,
    "▁proposal": 1499,
    "-in": 1500,
    "▁negotiations": 1501,
    "▁Ab": 1502,
    "▁arr": 1503,
    "▁mem": 1504,
    "▁month": 1505,
    "▁tal": 1506,
    "▁hiding": 1507,
    "▁Miy": 1508,
    "▁you!": 1509,
    "lects": 1510,
    "▁year.": 1511,
    "ficien": 1512,
    "ficienc": 1513,
    "▁comm": 1514,
    "class": 1515,
    "▁giv": 1516,
    "▁giving": 1517,
    "ember": 1518,
    "▁rep": 1519,
    "▁true": 1520,
    "gr": 1521,
    "▁alway": 1522,
    "enty": 1523,
    "ives": 1524,
    "to": 1525,
    "▁penalty": 1526,
    "▁intention": 1527,
    "▁intentionally": 1528,
    "ific": 1529,
    "less": 1530,
    "▁wrong": 1531,
    "▁council.": 1532,
    "▁go.": 1533,
    "▁dire": 1534,
    "▁direct": 1535,
    "s?": 1536,
    "▁threat": 1537,
    "▁fre": 1538,
    "▁pres": 1539,
    "▁slack": 1540,
    "ull": 1541,
    "urd": 1542,
    "▁def": 1543,
    "▁maybe": 1544,
    "illion": 1545,
    "▁prot": 1546,
    "▁protect": 1547,
    "▁saw": 1548,
    "azing": 1549,
    "▁abs": 1550,
    "▁boun": 1551,
    "▁bounty": 1552,
    "▁lif": 1553,
    "▁sum": 1554,
    "▁summ": 1555,
    "▁equals.": 1556,
    "▁learned": 1557,
    "▁mot": 1558,
    "▁he'd": 1559,
    "▁partnering": 1560,
    "cor": 1561,
    "▁students.": 1562,
    "▁true.": 1563,
    "▁payment": 1564,
    "▁rules": 1565,
    "▁build": 1566,
    "▁field": 1567,
    "▁Kaz": 1568,
    "▁Kazu": 1569,
    "▁Kazuom": 1570,
    "▁Kazuomi": 1571,
    "▁Nah,": 1572,
    "▁grate": 1573,
    "▁grateful": 1574,
    "▁At": 1575,
    "▁cler": 1576,
    "▁clerk": 1577,
    "▁talked": 1578,
    "▁tri": 1579,
    "▁tried": 1580,
    "▁buy": 1581,
    "▁expected.": 1582,
    "▁Look": 1583,
    "▁late": 1584,
    "▁gotta": 1585,
    "▁yet,": 1586,
    "▁trying": 1587,
    "▁determined": 1588,
    "▁forward.": 1589,
    "▁mind.": 1590,
    "ities": 1591,
    "▁against": 1592,
    "▁hal": 1593,
    "▁half": 1594,
    "esp": 1595,
    "▁affect": 1596,
    "cing": 1597,
    "▁plan.": 1598,
    "ugg": 1599,
    "uggl": 1600,
    "▁fell": 1601,
    "▁spend": 1602,
    "▁this?": 1603,
    "▁thank": 1604,
    "▁appre": 1605,
    "▁apprec": 1606,
    "▁appreciate": 1607,
    "side": 1608,
    "▁Should": 1609,
    "▁entertain": 1610,
    "▁question.": 1611,
    "▁rating": 1612,
    "▁hide": 1613,
    "▁So,": 1614,
    "▁that...": 1615,
    "▁encoun": 1616,
    "▁sing": 1617,
    "▁single": 1618,
    "▁Karuizawa-senpai": 1619,
    "▁girlfriend": 1620,
    "▁something?": 1621,
    "▁How's": 1622,
    "▁lef": 1623,
    "▁fav": 1624,
    "▁favor": 1625,
    "where": 1626,
    "▁here...": 1627,
    "▁personal": 1628,
    "▁once.": 1629,
    "arch": 1630,
    "▁once": 1631,
    "▁prob": 1632,
    "▁See": 1633,
    "▁Bye-": 1634,
    "▁Bye-by": 1635,
    "▁then!": 1636,
    "ai": 1637,
    "▁pairs": 1638,
    "▁Ayanokoji-kun.": 1639,
    "▁sent": 1640,
    "▁down.": 1641,
    "▁acknow": 1642,
    "▁acknowled": 1643,
    "▁acknowledge": 1644,
    "▁wat": 1645,
    "▁watch": 1646,
    "tle": 1647,
    "aki.": 1648,
    "▁hate": 1649,
    "▁later.": 1650,
    "▁curious": 1651,
    "▁many": 1652,
    "▁Out": 1653,
    "▁happened": 1654,
    "aster": 1655,
    "▁Here": 1656,
    "▁inform": 1657,
    "ood": 1658,
    "▁from?": 1659,
    "unn": 1660,
    "▁dating": 1661,
    "▁are,": 1662,
    "▁H-": 1663,
    "▁H-H": 1664,
    "▁honest": 1665,
    "▁mean,": 1666,
    "▁dat": 1667,
    "▁dating.": 1668,
    "▁break.": 1669,
    "▁then,": 1670,
    "▁is,": 1671,
    "▁back.": 1672,
    "▁measure": 1673,
    "▁hit": 1674,
    "▁problem.": 1675,
    "▁did.": 1676,
    "▁Hosen.": 1677,
    "▁course!": 1678,
    "▁enj": 1679,
    "▁enjo": 1680,
    "▁enjoy": 1681,
    "▁Hell": 1682,
    "aise": 1683,
    "▁y'": 1684,
    "▁y'know": 1685,
    "▁y'know?": 1686,
    "used": 1687,
    "▁trouble": 1688,
    "▁eff": 1689,
    "▁effort": 1690,
    "▁impro": 1691,
    "▁gradu": 1692,
    "▁guy": 1693,
    "▁Will": 1694,
    "▁Um": 1695,
    "▁midd": 1696,
    "▁middle": 1697,
    "▁afr": 1698,
    "▁afraid": 1699,
    "▁conc": 1700,
    "▁surpr": 1701,
    "▁test?": 1702,
    "esome": 1703,
    "agged": 1704,
    "▁ourselves.": 1705,
    "▁rid": 1706,
    "▁ridicul": 1707,
    "▁request": 1708,
    "ine.": 1709,
    "in'": 1710,
    "▁likely": 1711,
    "▁result": 1712,
    "▁means": 1713,
    "isk": 1714,
    "ue": 1715,
    "oke": 1716,
    "▁physic": 1717,
    "▁comes": 1718,
    "▁partner!": 1719,
    "▁ob": 1720,
    "▁seri": 1721,
    "▁dish": 1722,
    "▁skills": 1723,
    "▁Fine,": 1724,
    "▁extre": 1725,
    "▁extreme": 1726,
    "▁extremely": 1727,
    "▁home": 1728,
    "▁off.": 1729,
    "▁Ayanokoji!": 1730,
    "▁Tom": 1731,
    "uring": 1732,
    "▁partnerships": 1733,
    "▁formed": 1734,
    "nered": 1735,
    "▁apologize": 1736,
    "▁day.": 1737,
    "▁is...": 1738,
    "▁yet.": 1739,
    "▁position": 1740,
    "▁within": 1741,
    "▁particul": 1742,
    "▁particular": 1743,
    "▁violence": 1744,
    "▁he'll": 1745,
    "ade": 1746,
    "▁move": 1747,
    "▁avoid": 1748,
    "ance,": 1749,
    "▁knife,": 1750,
    "▁Wait": 1751,
    "▁Thes": 1752,
    "▁These": 1753,
    "ens": 1754,
    "▁okay": 1755,
    "▁okay?": 1756,
    "▁Com": 1757,
    "▁heard": 1758,
    "▁walk": 1759,
    "▁fift": 1760,
    "▁fifteen": 1761,
    "▁forget": 1762,
    "▁heading": 1763,
    "▁accomplish": 1764,
    "▁Though": 1765,
    "▁Amasawa's": 1766,
    "▁sus": 1767,
    "▁Tsubasa": 1768,
    "▁offer.": 1769,
    "▁contract": 1770,
    "▁strategy": 1771,
    "▁benef": 1772,
    "▁benefit": 1773,
    "▁following": 1774,
    "▁mist": 1775,
    "▁mistake": 1776,
    "▁brib": 1777,
    "▁mis": 1778,
    "iced": 1779,
    "▁200,000": 1780,
    "▁them?": 1781,
    "ary": 1782,
    "▁pay.": 1783,
    "▁else.": 1784,
    "chang": 1785,
    "▁level": 1786,
    "ats": 1787,
    "▁Nanase-san": 1788,
    "▁proper": 1789,
    "oor": 1790,
    "▁self-in": 1791,
    "▁self-int": 1792,
    "▁self-interest": 1793,
    "▁forward,": 1794,
    "▁foc": 1795,
    "▁disad": 1796,
    "▁disadv": 1797,
    "▁disadvantage": 1798,
    "▁possible": 1799,
    "lud": 1800,
    "▁data": 1801,
    "ized": 1802,
    "iec": 1803,
    "▁talent": 1804,
    "▁interest": 1805,
    "▁worri": 1806,
    "a,": 1807,
    "▁too...": 1808,
    "▁year,": 1809,
    "▁takes": 1810,
    "▁All": 1811,
    "▁Pr": 1812,
    "▁writt": 1813,
    "▁written": 1814,
    "▁Ref": 1815,
    "▁Reflects": 1816,
    "▁evaluation": 1817,
    "▁gy": 1818,
    "▁gym": 1819,
    "▁Think": 1820,
    "▁commun": 1821,
    "osoc": 1822,
    "osocial": 1823,
    "▁Pro": 1824,
    "▁Proficienc": 1825,
    "▁Proficiency": 1826,
    "▁toward": 1827,
    "eneral": 1828,
    "▁Ev": 1829,
    "▁Evaluation": 1830,
    "▁ability": 1831,
    "▁four": 1832,
    "alu": 1833,
    "▁(": 1834,
    "▁+": 1835,
    "▁abil": 1836,
    "▁beg": 1837,
    "▁sim": 1838,
    "▁repres": 1839,
    "ark": 1840,
    "▁dr": 1841,
    "▁interaction": 1842,
    "▁However": 1843,
    "▁expulsion": 1844,
    "▁A-": 1845,
    "▁A-A": 1846,
    "▁concept": 1847,
    "▁Part": 1848,
    "▁feels": 1849,
    "hap": 1850,
    "ject": 1851,
    "entives": 1852,
    "▁own.": 1853,
    "-Wh": 1854,
    "▁hurr": 1855,
    "▁Some": 1856,
    "▁cho": 1857,
    "▁imm": 1858,
    "▁immed": 1859,
    "▁immediate": 1860,
    "▁sign": 1861,
    "airman": 1862,
    "▁Tsuk": 1863,
    "▁Tsukish": 1864,
    "▁Tsukishir": 1865,
    "▁Tsukishiro": 1866,
    "▁tot": 1867,
    "ess,": 1868,
    "▁remember": 1869,
    "▁win": 1870,
    "▁throw": 1871,
    "▁prior": 1872,
    "▁either": 1873,
    "▁which": 1874,
    "▁Hon": 1875,
    "▁Honami": 1876,
    "▁starting": 1877,
    "▁Ichinose-san": 1878,
    "ict": 1879,
    "▁Sakayanagi-san": 1880,
    "▁Her": 1881,
    "▁beat": 1882,
    "▁mixer.": 1883,
    "▁sugg": 1884,
    "▁suggest": 1885,
    "▁unit": 1886,
    "▁leader,": 1887,
    "▁decided": 1888,
    "▁idi": 1889,
    "▁idiot": 1890,
    "icip": 1891,
    "▁ones": 1892,
    "▁ru": 1893,
    "▁saying": 1894,
    "▁happens,": 1895,
    "▁arriv": 1896,
    "▁Not": 1897,
    "▁way!": 1898,
    "men": 1899,
    "▁upper": 1900,
    "▁outta": 1901,
    "k.": 1902,
    "▁dum": 1903,
    "▁dumb": 1904,
    "▁who'd": 1905,
    "app": 1906,
    "▁foot": 1907,
    "que": 1908,
    "▁mus": 1909,
    "▁musc": 1910,
    "▁muscle": 1911,
    "▁bare": 1912,
    "▁Ish": 1913,
    "opping": 1914,
    "▁him,": 1915,
    "anc": 1916,
    "▁gain": 1917,
    "ify": 1918,
    "▁fight.": 1919,
    "▁Un": 1920,
    "▁calm": 1921,
    "▁Ayanokoji's": 1922,
    "▁going,": 1923,
    "▁later,": 1924,
    "▁sooner": 1925,
    "▁reve": 1926,
    "▁reveal": 1927,
    "▁expl": 1928,
    "▁explan": 1929,
    "▁explanation": 1930,
    "▁we've": 1931,
    "▁amazing": 1932,
    "▁enem": 1933,
    "▁enemy.": 1934,
    "ance.": 1935,
    "▁end.": 1936,
    "▁W-W": 1937,
    "▁certainly": 1938,
    "▁20": 1939,
    "▁20-": 1940,
    "▁20-m": 1941,
    "▁20-million": 1942,
    "▁absurd": 1943,
    "▁road": 1944,
    "▁gl": 1945,
    "▁summer": 1946,
    "der": 1947,
    "▁Gotcha.": 1948,
    "▁reach": 1949,
    "bed": 1950,
    "▁Two": 1951,
    "▁terms": 1952,
    "▁Horikita-senpai.": 1953,
    "▁agreement.": 1954,
    "ive.": 1955,
    "▁fails": 1956,
    "▁pain": 1957,
    "▁penalt": 1958,
    "▁penalty.": 1959,
    "▁classmates.": 1960,
    "rac": 1961,
    "▁playing": 1962,
    "▁field.": 1963,
    "▁Take": 1964,
    "▁Hey": 1965,
    "▁filled": 1966,
    "▁in.": 1967,
    "▁Shut": 1968,
    "▁bow": 1969,
    "▁us,": 1970,
    "▁offered": 1971,
    "▁Sorry.": 1972,
    "ing?": 1973,
    "▁they'd": 1974,
    "▁April.": 1975,
    "▁App": 1976,
    "▁Appare": 1977,
    "▁Apparen": 1978,
    "▁Apparent": 1979,
    "▁Apparently,": 1980,
    "▁out?": 1981,
    "▁grat": 1982,
    "▁gratitud": 1983,
    "▁grateful.": 1984,
    "▁studies": 1985,
    "▁mean...": 1986,
    "▁lately,": 1987,
    "▁motiv": 1988,
    "▁there?": 1989,
    "▁yea": 1990,
    "▁boyfriend": 1991,
    "▁tomorrow?": 1992,
    "▁hang": 1993,
    "▁Ko": 1994,
    "▁Koen": 1995,
    "▁Koenji": 1996,
    "▁easily": 1997,
    "▁passing": 1998
  }
}