{
  "target_vocab_size": 2000,
  "unk_token": "<unk>",
  "special_tokens": [
    "<unk>"
  ],
  "merges": [
    [
      "▁",
      "t"
    ],
    [
      "o",
      "u"
    ],
    [
      "▁",
      "a"
    ],
    [
      "▁t",
      "h"
    ],
    [
      "i",
      "n"
    ],
    [
      "▁",
      "w"
    ],
    [
      "r",
      "e"
    ],
    [
      "▁",
      "s"
    ],
    [
      "▁",
      "I"
    ],
    [
      "▁",
      "y"
    ],
    [
      "o",
      "n"
    ],
    [
      "e",
      "n"
    ],
    [
      "a",
      "t"
    ],
    [
      "▁y",
      "ou"
    ],
    [
      "▁t",
      "o"
    ],
    [
      "e",
      "r"
    ],
    [
      "▁",
      "m"
    ],
    [
      "l",
      "l"
    ],
    [
      "▁th",
      "e"
    ],
    [
      "a",
      "n"
    ],
    [
      "▁",
      "h"
    ],
    [
      "i",
      "t"
    ],
    [
      "▁",
      "c"
    ],
    [
      "▁",
      "b"
    ],
    [
      "▁",
      "f"
    ],
    [
      "in",
      "g"
    ],
    [
      "▁",
      "d"
    ],
    [
      "s",
      "t"
    ],
    [
      "o",
      "r"
    ],
    [
      "▁",
      "p"
    ],
    [
      "▁",
      "g"
    ],
    [
      "a",
      "r"
    ],
    [
      "▁",
      "o"
    ],
    [
      "a",
      "s"
    ],
    [
      "e",
      "d"
    ],
    [
      "i",
      "s"
    ],
    [
      "v",
      "e"
    ],
    [
      "▁b",
      "e"
    ],
    [
      "▁",
      "l"
    ],
    [
      "e",
      "s"
    ],
    [
      "'",
      "t"
    ],
    [
      "o",
      "m"
    ],
    [
      "'",
      "s"
    ],
    [
      "▁o",
      "f"
    ],
    [
      "▁",
      "T"
    ],
    [
      "▁",
      "n"
    ],
    [
      "e",
      "t"
    ],
    [
      "▁",
      "Y"
    ],
    [
      "▁",
      "A"
    ],
    [
      "a",
      "l"
    ],
    [
      "▁",
      "in"
    ],
    [
      "▁a",
      "n"
    ],
    [
      "▁I",
      "'"
    ],
    [
      "o",
      "w"
    ],
    [
      "▁",
      "W"
    ],
    [
      "o",
      "t"
    ],
    [
      "en",
      "t"
    ],
    [
      "▁",
      "e"
    ],
    [
      "▁",
      "u"
    ],
    [
      "▁th",
      "at"
    ],
    [
      "i",
      "d"
    ],
    [
      "▁m",
      "e"
    ],
    [
      ".",
      "."
    ],
    [
      "▁T",
      "h"
    ],
    [
      "▁",
      "it"
    ],
    [
      "▁",
      "H"
    ],
    [
      "▁s",
      "t"
    ],
    [
      "a",
      "y"
    ],
    [
      "u",
      "t"
    ],
    [
      "▁Y",
      "ou"
    ],
    [
      "l",
      "d"
    ],
    [
      "▁",
      "S"
    ],
    [
      "l",
      "e"
    ],
    [
      "▁",
      "on"
    ],
    [
      "g",
      "h"
    ],
    [
      "k",
      "e"
    ],
    [
      "▁w",
      "e"
    ],
    [
      "▁f",
      "or"
    ],
    [
      "as",
      "s"
    ],
    [
      "▁",
      "re"
    ],
    [
      "it",
      "h"
    ],
    [
      "l",
      "ass"
    ],
    [
      "▁w",
      "h"
    ],
    [
      "ou",
      "t"
    ],
    [
      "c",
      "h"
    ],
    [
      "i",
      "r"
    ],
    [
      "i",
      "ll"
    ],
    [
      "▁w",
      "ith"
    ],
    [
      "▁",
      "is"
    ],
    [
      "▁h",
      "a"
    ],
    [
      "▁h",
      "e"
    ],
    [
      "o",
      "s"
    ],
    [
      "c",
      "e"
    ],
    [
      "ou",
      "ld"
    ],
    [
      "i",
      "on"
    ],
    [
      "▁W",
      "h"
    ],
    [
      "▁s",
      "e"
    ],
    [
      "▁",
      "r"
    ],
    [
      "a",
      "d"
    ],
    [
      "i",
      "m"
    ],
    [
      "p",
      "e"
    ],
    [
      "e",
      "."
    ],
    [
      "u",
      "n"
    ],
    [
      "on",
      "'t"
    ],
    [
      "▁you",
      "r"
    ],
    [
      "▁I'",
      "m"
    ],
    [
      "▁",
      "C"
    ],
    [
      "i",
      "f"
    ],
    [
      "u",
      "d"
    ],
    [
      "i",
      "gh"
    ],
    [
      "▁an",
      "d"
    ],
    [
      "l",
      "y"
    ],
    [
      "c",
      "t"
    ],
    [
      "'",
      "re"
    ],
    [
      "▁",
      "B"
    ],
    [
      "▁e",
      "x"
    ],
    [
      "o",
      "o"
    ],
    [
      "n",
      "'t"
    ],
    [
      "s",
      "."
    ],
    [
      "ar",
      "t"
    ],
    [
      "..",
      "."
    ],
    [
      "▁w",
      "ill"
    ],
    [
      "u",
      "st"
    ],
    [
      "▁u",
      "p"
    ],
    [
      "an",
      "t"
    ],
    [
      "e",
      "st"
    ],
    [
      "▁a",
      "b"
    ],
    [
      "▁a",
      "s"
    ],
    [
      "r",
      "ou"
    ],
    [
      "igh",
      "t"
    ],
    [
      "n",
      "d"
    ],
    [
      "a",
      "m"
    ],
    [
      "▁th",
      "is"
    ],
    [
      "▁d",
      "o"
    ],
    [
      "▁ha",
      "ve"
    ],
    [
      "▁c",
      "an"
    ],
    [
      "i",
      "c"
    ],
    [
      "▁a",
      "ll"
    ],
    [
      "▁m",
      "y"
    ],
    [
      "▁Th",
      "e"
    ],
    [
      "a",
      "ll"
    ],
    [
      "▁n",
      "ot"
    ],
    [
      "e",
      "ar"
    ],
    [
      "▁s",
      "u"
    ],
    [
      "▁a",
      "re"
    ],
    [
      "e",
      "m"
    ],
    [
      "v",
      "er"
    ],
    [
      "▁l",
      "i"
    ],
    [
      "s",
      "e"
    ],
    [
      "▁",
      "j"
    ],
    [
      "ou",
      "r"
    ],
    [
      "om",
      "e"
    ],
    [
      "▁a",
      "t"
    ],
    [
      "▁st",
      "ud"
    ],
    [
      "-",
      "k"
    ],
    [
      "-k",
      "un"
    ],
    [
      "in",
      "k"
    ],
    [
      "▁",
      "N"
    ],
    [
      "a",
      "k"
    ],
    [
      "▁g",
      "et"
    ],
    [
      "▁n",
      "e"
    ],
    [
      "▁w",
      "ant"
    ],
    [
      "▁c",
      "lass"
    ],
    [
      "▁",
      "D"
    ],
    [
      "▁",
      "k"
    ],
    [
      "▁W",
      "e"
    ],
    [
      "▁",
      "if"
    ],
    [
      "▁Wh",
      "at"
    ],
    [
      "h",
      "er"
    ],
    [
      "o",
      "re"
    ],
    [
      "▁stud",
      "ent"
    ],
    [
      "▁ab",
      "out"
    ],
    [
      "▁th",
      "ink"
    ],
    [
      "▁C",
      "lass"
    ],
    [
      "▁I",
      "t"
    ],
    [
      "▁s",
      "h"
    ],
    [
      "▁li",
      "ke"
    ],
    [
      "u",
      "r"
    ],
    [
      "▁B",
      "ut"
    ],
    [
      "▁f",
      "r"
    ],
    [
      "a",
      "ke"
    ],
    [
      "▁d",
      "on't"
    ],
    [
      "ir",
      "st"
    ],
    [
      "▁",
      "out"
    ],
    [
      "▁t",
      "est"
    ],
    [
      "an",
      "d"
    ],
    [
      "▁w",
      "or"
    ],
    [
      "p",
      "p"
    ],
    [
      "rou",
      "p"
    ],
    [
      "r",
      "o"
    ],
    [
      "ar",
      "d"
    ],
    [
      "▁Th",
      "at"
    ],
    [
      "▁I'",
      "ll"
    ],
    [
      "▁w",
      "as"
    ],
    [
      "a",
      "g"
    ],
    [
      "▁f",
      "irst"
    ],
    [
      "c",
      "i"
    ],
    [
      "▁s",
      "o"
    ],
    [
      "on",
      "e"
    ],
    [
      "▁p",
      "art"
    ],
    [
      "v",
      "en"
    ],
    [
      "▁w",
      "ould"
    ],
    [
      "▁b",
      "ut"
    ],
    [
      "o",
      "k"
    ],
    [
      "i",
      "ve"
    ],
    [
      "▁I",
      "f"
    ],
    [
      "▁g",
      "o"
    ],
    [
      "▁",
      "K"
    ],
    [
      "▁g",
      "roup"
    ],
    [
      "j",
      "i"
    ],
    [
      "en",
      "d"
    ],
    [
      "at",
      "e"
    ],
    [
      "t",
      "er"
    ],
    [
      "b",
      "le"
    ],
    [
      "▁t",
      "r"
    ],
    [
      "all",
      "y"
    ],
    [
      "▁an",
      "y"
    ],
    [
      "▁d",
      "id"
    ],
    [
      "▁j",
      "ust"
    ],
    [
      "ok",
      "o"
    ],
    [
      "▁wh",
      "at"
    ],
    [
      "▁A",
      "y"
    ],
    [
      "an",
      "oko"
    ],
    [
      "anoko",
      "ji"
    ],
    [
      "▁",
      "O"
    ],
    [
      "-",
      "s"
    ],
    [
      "e",
      "a"
    ],
    [
      "▁Ay",
      "anokoji"
    ],
    [
      "▁c",
      "on"
    ],
    [
      "u",
      "l"
    ],
    [
      "▁fr",
      "om"
    ],
    [
      "a",
      "i"
    ],
    [
      "▁ex",
      "pe"
    ],
    [
      "▁",
      "R"
    ],
    [
      "y",
      "."
    ],
    [
      "▁k",
      "n"
    ],
    [
      "es",
      "."
    ],
    [
      "os",
      "en"
    ],
    [
      "at",
      "ion"
    ],
    [
      "e",
      "re"
    ],
    [
      "a",
      "in"
    ],
    [
      "▁H",
      "osen"
    ],
    [
      "▁",
      "our"
    ],
    [
      "c",
      "k"
    ],
    [
      "in",
      "d"
    ],
    [
      "s",
      ","
    ],
    [
      "n",
      "er"
    ],
    [
      "-",
      "y"
    ],
    [
      "'",
      "ll"
    ],
    [
      "u",
      "s"
    ],
    [
      "-y",
      "ear"
    ],
    [
      "ed",
      "."
    ],
    [
      "q",
      "u"
    ],
    [
      "▁n",
      "ow"
    ],
    [
      "▁c",
      "h"
    ],
    [
      "ou",
      "gh"
    ],
    [
      "▁d",
      "e"
    ],
    [
      "▁on",
      "e"
    ],
    [
      "▁part",
      "ner"
    ],
    [
      "▁s",
      "pe"
    ],
    [
      "ing",
      "."
    ],
    [
      "▁A",
      "nd"
    ],
    [
      "t",
      "h"
    ],
    [
      "▁H",
      "e"
    ],
    [
      "e",
      ","
    ],
    [
      "▁wh",
      "o"
    ],
    [
      "▁That",
      "'s"
    ],
    [
      "▁he",
      "re"
    ],
    [
      "▁t",
      "im"
    ],
    [
      "ci",
      "al"
    ],
    [
      "▁in",
      "t"
    ],
    [
      "▁a",
      "l"
    ],
    [
      "▁s",
      "ome"
    ],
    [
      "▁wor",
      "k"
    ],
    [
      "▁p",
      "re"
    ],
    [
      "▁p",
      "l"
    ],
    [
      "▁r",
      "ight"
    ],
    [
      "▁S",
      "o"
    ],
    [
      "▁the",
      "y"
    ],
    [
      "o",
      "in"
    ],
    [
      "r",
      "i"
    ],
    [
      "oo",
      "l"
    ],
    [
      "▁You",
      "'re"
    ],
    [
      "▁",
      "M"
    ],
    [
      "▁kn",
      "ow"
    ],
    [
      "▁you",
      "'re"
    ],
    [
      "▁c",
      "om"
    ],
    [
      "▁you",
      "."
    ],
    [
      "oo",
      "k"
    ],
    [
      "m",
      "ent"
    ],
    [
      "▁u",
      "n"
    ],
    [
      "es",
      "s"
    ],
    [
      "▁th",
      "en"
    ],
    [
      "▁of",
      "f"
    ],
    [
      "en",
      "p"
    ],
    [
      "enp",
      "ai"
    ],
    [
      "i",
      "e"
    ],
    [
      "'",
      "d"
    ],
    [
      "▁se",
      "em"
    ],
    [
      "▁w",
      "on't"
    ],
    [
      "▁se",
      "e"
    ],
    [
      "▁",
      "L"
    ],
    [
      "▁expe",
      "ll"
    ],
    [
      "a",
      "st"
    ],
    [
      "▁m",
      "ore"
    ],
    [
      "▁It",
      "'s"
    ],
    [
      "am",
      "e"
    ],
    [
      "i",
      "k"
    ],
    [
      "▁u",
      "s"
    ],
    [
      "▁su",
      "re"
    ],
    [
      "▁first",
      "-year"
    ],
    [
      "ch",
      "ool"
    ],
    [
      "▁",
      "P"
    ],
    [
      "▁h",
      "er"
    ],
    [
      "y",
      ","
    ],
    [
      "h",
      ","
    ],
    [
      "▁the",
      "re"
    ],
    [
      "on",
      "g"
    ],
    [
      "?",
      "!"
    ],
    [
      "os",
      "e"
    ],
    [
      "g",
      "e"
    ],
    [
      "▁t",
      "al"
    ],
    [
      "▁did",
      "n't"
    ],
    [
      "an",
      "ce"
    ],
    [
      "▁it",
      "'s"
    ],
    [
      "▁h",
      "ow"
    ],
    [
      "▁c",
      "ould"
    ],
    [
      "ou",
      "n"
    ],
    [
      "▁",
      "E"
    ],
    [
      "'",
      "ve"
    ],
    [
      "it",
      "a"
    ],
    [
      "i",
      "g"
    ],
    [
      "▁h",
      "im"
    ],
    [
      "▁y",
      "ear"
    ],
    [
      "▁we",
      "re"
    ],
    [
      "▁a",
      "f"
    ],
    [
      "▁as",
      "k"
    ],
    [
      "▁",
      "or"
    ],
    [
      "▁m",
      "ake"
    ],
    [
      "i",
      "z"
    ],
    [
      "er",
      "s"
    ],
    [
      "▁w",
      "ay"
    ],
    [
      "u",
      "m"
    ],
    [
      "▁g",
      "ot"
    ],
    [
      "▁n",
      "o"
    ],
    [
      "er",
      "t"
    ],
    [
      "re",
      "e"
    ],
    [
      "▁p",
      "ro"
    ],
    [
      "▁to",
      "o"
    ],
    [
      "▁it",
      "."
    ],
    [
      "▁spe",
      "cial"
    ],
    [
      "e",
      "ll"
    ],
    [
      "o",
      "p"
    ],
    [
      "▁s",
      "chool"
    ],
    [
      "ver",
      "y"
    ],
    [
      "it",
      "e"
    ],
    [
      "▁a",
      "g"
    ],
    [
      "r",
      "a"
    ],
    [
      "a",
      "re"
    ],
    [
      "▁S",
      "h"
    ],
    [
      "▁tal",
      "k"
    ],
    [
      "t",
      "y"
    ],
    [
      "▁I'",
      "ve"
    ],
    [
      "-s",
      "enpai"
    ],
    [
      "e",
      "l"
    ],
    [
      "▁sh",
      "ould"
    ],
    [
      "▁b",
      "y"
    ],
    [
      "▁o",
      "t"
    ],
    [
      "▁ot",
      "her"
    ],
    [
      "▁student",
      "s"
    ],
    [
      "▁go",
      "ing"
    ],
    [
      "▁me",
      "."
    ],
    [
      "▁H",
      "or"
    ],
    [
      "▁Hor",
      "ik"
    ],
    [
      "▁Horik",
      "ita"
    ],
    [
      "▁ne",
      "ed"
    ],
    [
      "i",
      "l"
    ],
    [
      "s",
      "id"
    ],
    [
      "u",
      "re"
    ],
    [
      "i",
      "v"
    ],
    [
      "i",
      "y"
    ],
    [
      "▁m",
      "o"
    ],
    [
      "es",
      ","
    ],
    [
      "▁",
      "G"
    ],
    [
      "a",
      "ck"
    ],
    [
      "▁",
      "en"
    ],
    [
      "▁s",
      "ay"
    ],
    [
      "▁you",
      "?"
    ],
    [
      "or",
      "r"
    ],
    [
      "▁",
      "F"
    ],
    [
      "on",
      "d"
    ],
    [
      "▁re",
      "ally"
    ],
    [
      "▁be",
      "t"
    ],
    [
      "▁e",
      "ven"
    ],
    [
      "▁can",
      "'t"
    ],
    [
      "▁t",
      "ake"
    ],
    [
      "▁u",
      "nd"
    ],
    [
      "et",
      "'s"
    ],
    [
      "▁I",
      "s"
    ],
    [
      "▁I'",
      "d"
    ],
    [
      "▁",
      "im"
    ],
    [
      "▁that",
      "."
    ],
    [
      "g",
      "et"
    ],
    [
      "ed",
      ","
    ],
    [
      "ou",
      "s"
    ],
    [
      "▁me",
      "an"
    ],
    [
      "▁st",
      "art"
    ],
    [
      "▁h",
      "as"
    ],
    [
      "▁s",
      "c"
    ],
    [
      "▁th",
      "an"
    ],
    [
      "ie",
      "ve"
    ],
    [
      "w",
      "ard"
    ],
    [
      "▁We",
      "ll"
    ],
    [
      "p",
      "l"
    ],
    [
      "a",
      "ch"
    ],
    [
      "a",
      "ble"
    ],
    [
      "o",
      "l"
    ],
    [
      "l",
      "f"
    ],
    [
      "▁s",
      "a"
    ],
    [
      "-s",
      "an"
    ],
    [
      "▁Hosen",
      "-kun"
    ],
    [
      "▁The",
      "re"
    ],
    [
      "▁do",
      "es"
    ],
    [
      "▁o",
      "ver"
    ],
    [
      "oin",
      "t"
    ],
    [
      "▁und",
      "er"
    ],
    [
      "▁the",
      "m"
    ],
    [
      "oo",
      "d"
    ],
    [
      "t",
      "ing"
    ],
    [
      "▁some",
      "one"
    ],
    [
      "▁",
      "qu"
    ],
    [
      "▁he",
      "l"
    ],
    [
      "▁hel",
      "p"
    ],
    [
      "▁st",
      "r"
    ],
    [
      "▁f",
      "e"
    ],
    [
      "▁th",
      "ing"
    ],
    [
      "▁wh",
      "y"
    ],
    [
      "s",
      "u"
    ],
    [
      "▁th",
      "ough"
    ],
    [
      "▁g",
      "u"
    ],
    [
      "ow",
      "n"
    ],
    [
      "▁a",
      "pp"
    ],
    [
      "l",
      "and"
    ],
    [
      "p",
      "t"
    ],
    [
      "▁tim",
      "e"
    ],
    [
      "in",
      "e"
    ],
    [
      "os",
      "s"
    ],
    [
      "is",
      "h"
    ],
    [
      "er",
      "."
    ],
    [
      "▁H",
      "ow"
    ],
    [
      "▁on",
      "ly"
    ],
    [
      "▁c",
      "ome"
    ],
    [
      "v",
      "ing"
    ],
    [
      "e",
      "p"
    ],
    [
      "▁m",
      "ay"
    ],
    [
      "0",
      "0"
    ],
    [
      "▁p",
      "oint"
    ],
    [
      "▁you",
      ","
    ],
    [
      "ion",
      "."
    ],
    [
      "▁first-year",
      "s"
    ],
    [
      "▁a",
      "ct"
    ],
    [
      "i",
      "p"
    ],
    [
      "▁g",
      "ive"
    ],
    [
      "u",
      "se"
    ],
    [
      "et",
      "h"
    ],
    [
      "p",
      "er"
    ],
    [
      "h",
      "?"
    ],
    [
      "▁",
      "2"
    ],
    [
      "▁Y",
      "ea"
    ],
    [
      "a",
      "ir"
    ],
    [
      "▁se",
      "c"
    ],
    [
      "▁for",
      "m"
    ],
    [
      "w",
      "n"
    ],
    [
      "▁a",
      "c"
    ],
    [
      "as",
      "e"
    ],
    [
      "▁seem",
      "s"
    ],
    [
      "▁L",
      "et's"
    ],
    [
      "▁c",
      "oun"
    ],
    [
      "▁l",
      "e"
    ],
    [
      "▁Y",
      "es."
    ],
    [
      "y",
      "u"
    ],
    [
      "▁h",
      "is"
    ],
    [
      "▁af",
      "ter"
    ],
    [
      "▁is",
      "land"
    ],
    [
      "▁wh",
      "en"
    ],
    [
      "▁l",
      "ook"
    ],
    [
      "▁con",
      "t"
    ],
    [
      "or",
      "t"
    ],
    [
      "▁im",
      "p"
    ],
    [
      "e",
      "ct"
    ],
    [
      "▁test",
      "."
    ],
    [
      "e",
      "op"
    ],
    [
      "eop",
      "le"
    ],
    [
      "▁off",
      "er"
    ],
    [
      "ad",
      "e"
    ],
    [
      "▁d",
      "own"
    ],
    [
      "▁",
      "v"
    ],
    [
      "▁d",
      "es"
    ],
    [
      "▁g",
      "r"
    ],
    [
      "a",
      "b"
    ],
    [
      "▁l",
      "o"
    ],
    [
      "▁h",
      "o"
    ],
    [
      "▁r",
      "at"
    ],
    [
      "▁",
      "end"
    ],
    [
      "a",
      "."
    ],
    [
      "▁sh",
      "e"
    ],
    [
      "o",
      "om"
    ],
    [
      "a",
      "ct"
    ],
    [
      "t",
      "le"
    ],
    [
      "▁fe",
      "el"
    ],
    [
      "▁Wh",
      "y"
    ],
    [
      "▁t",
      "w"
    ],
    [
      "▁",
      "1"
    ],
    [
      "er",
      "m"
    ],
    [
      "f",
      "ore"
    ],
    [
      "▁I",
      "n"
    ],
    [
      "▁o",
      "wn"
    ],
    [
      "i",
      "ce"
    ],
    [
      "▁me",
      "?"
    ],
    [
      "se",
      "lf"
    ],
    [
      "▁s",
      "om"
    ],
    [
      "▁N",
      "an"
    ],
    [
      "▁that",
      "'s"
    ],
    [
      "▁He",
      "y,"
    ],
    [
      "▁",
      "very"
    ],
    [
      "▁then",
      "?"
    ],
    [
      "▁p",
      "eople"
    ],
    [
      "▁R",
      "yu"
    ],
    [
      "▁Ryu",
      "en"
    ],
    [
      "▁me",
      "et"
    ],
    [
      "▁e",
      "l"
    ],
    [
      "en",
      "al"
    ],
    [
      "▁s",
      "ame"
    ],
    [
      "▁the",
      "ir"
    ],
    [
      "▁Th",
      "is"
    ],
    [
      "ers",
      "on"
    ],
    [
      "u",
      "ch"
    ],
    [
      "▁",
      "id"
    ],
    [
      "▁b",
      "ack"
    ],
    [
      "▁be",
      "fore"
    ],
    [
      "▁expell",
      "ed"
    ],
    [
      "▁re",
      "s"
    ],
    [
      "▁f",
      "ight"
    ],
    [
      "▁se",
      "e."
    ],
    [
      "▁we",
      "ll"
    ],
    [
      "▁p",
      "ay"
    ],
    [
      "▁Ayanokoji",
      "-kun"
    ],
    [
      "it",
      "y"
    ],
    [
      "▁he",
      "ad"
    ],
    [
      "▁l",
      "ast"
    ],
    [
      "▁Well",
      ","
    ],
    [
      "▁to",
      "get"
    ],
    [
      "▁toget",
      "her"
    ],
    [
      "▁",
      "U"
    ],
    [
      "▁group",
      "s"
    ],
    [
      "▁d",
      "ay"
    ],
    [
      "▁ha",
      "pp"
    ],
    [
      "▁p",
      "enal"
    ],
    [
      "i",
      "st"
    ],
    [
      "an",
      "k"
    ],
    [
      "ic",
      "ul"
    ],
    [
      "▁N",
      "o"
    ],
    [
      "▁m",
      "uch"
    ],
    [
      "▁tr",
      "y"
    ],
    [
      "▁would",
      "n't"
    ],
    [
      "▁som",
      "eth"
    ],
    [
      "▁O",
      "h,"
    ],
    [
      "▁me",
      ","
    ],
    [
      "▁expe",
      "ct"
    ],
    [
      "▁that",
      "?"
    ],
    [
      "c",
      "om"
    ],
    [
      "ere",
      "st"
    ],
    [
      "▁right",
      "?"
    ],
    [
      "▁re",
      "al"
    ],
    [
      "▁D",
      "o"
    ],
    [
      "▁sec",
      "ond"
    ],
    [
      "i",
      "re"
    ],
    [
      "▁p",
      "erson"
    ],
    [
      "▁though",
      "t"
    ],
    [
      "▁f",
      "ind"
    ],
    [
      "▁m",
      "ight"
    ],
    [
      "a",
      "ce"
    ],
    [
      "a",
      "w"
    ],
    [
      "▁you",
      "'ll"
    ],
    [
      "▁ha",
      "ven"
    ],
    [
      "▁haven",
      "'t"
    ],
    [
      "▁sc",
      "ore"
    ],
    [
      "▁be",
      "en"
    ],
    [
      "▁ha",
      "d"
    ],
    [
      "▁S",
      "ud"
    ],
    [
      "▁Sud",
      "o"
    ],
    [
      "▁now",
      "."
    ],
    [
      "▁l",
      "et"
    ],
    [
      "ot",
      "her"
    ],
    [
      "ad",
      "em"
    ],
    [
      "adem",
      "ic"
    ],
    [
      "▁k",
      "ind"
    ],
    [
      "ch",
      "ieve"
    ],
    [
      "▁c",
      "our"
    ],
    [
      "ic",
      "k"
    ],
    [
      "▁y",
      "et"
    ],
    [
      "▁A",
      "re"
    ],
    [
      "f",
      "f"
    ],
    [
      "it",
      "ion"
    ],
    [
      "▁be",
      "c"
    ],
    [
      "at",
      "ed"
    ],
    [
      "oss",
      "i"
    ],
    [
      "ing",
      ","
    ],
    [
      "▁any",
      "th"
    ],
    [
      "▁",
      "J"
    ],
    [
      "▁h",
      "igh"
    ],
    [
      "i",
      "ous"
    ],
    [
      "▁at",
      "t"
    ],
    [
      "▁pre",
      "t"
    ],
    [
      "an",
      "g"
    ],
    [
      "u",
      "ation"
    ],
    [
      "▁Wh",
      "ite"
    ],
    [
      "▁R",
      "oom"
    ],
    [
      "▁s",
      "p"
    ],
    [
      "u",
      "h?"
    ],
    [
      "▁",
      "ke"
    ],
    [
      "▁coun",
      "ci"
    ],
    [
      "▁counci",
      "l"
    ],
    [
      "▁b",
      "r"
    ],
    [
      "▁bet",
      "ter"
    ],
    [
      "▁Ayanokoji",
      "-senpai"
    ],
    [
      "▁m",
      "an"
    ],
    [
      "ak",
      "ing"
    ],
    [
      "▁h",
      "ard"
    ],
    [
      "▁al",
      "re"
    ],
    [
      "▁alre",
      "ad"
    ],
    [
      "us",
      "h"
    ],
    [
      "▁d",
      "is"
    ],
    [
      "▁m",
      "ust"
    ],
    [
      "▁it",
      "?"
    ],
    [
      "▁j",
      "oin"
    ],
    [
      "▁we",
      "'re"
    ],
    [
      "▁a",
      "d"
    ],
    [
      "▁someth",
      "ing"
    ],
    [
      "▁Sh",
      "e"
    ],
    [
      "▁l",
      "ea"
    ],
    [
      "▁l",
      "ot"
    ],
    [
      "▁then",
      "."
    ],
    [
      "▁ke",
      "ep"
    ],
    [
      "▁tr",
      "ust"
    ],
    [
      "sid",
      "ent"
    ],
    [
      "▁com",
      "p"
    ],
    [
      "▁p",
      "air"
    ],
    [
      "n",
      "a"
    ],
    [
      "▁c",
      "r"
    ],
    [
      "▁h",
      "and"
    ],
    [
      "u",
      "e"
    ],
    [
      "▁does",
      "n't"
    ],
    [
      "▁be",
      "ing"
    ],
    [
      "ert",
      "ed"
    ],
    [
      "▁tw",
      "o"
    ],
    [
      "▁p",
      "er"
    ],
    [
      "an",
      "ge"
    ],
    [
      "▁T",
      "su"
    ],
    [
      "▁here",
      "."
    ],
    [
      "▁su",
      "r"
    ],
    [
      "u",
      "al"
    ],
    [
      "▁en",
      "ough"
    ],
    [
      "▁p",
      "ut"
    ],
    [
      "▁D",
      "on't"
    ],
    [
      "▁t",
      "ell"
    ],
    [
      "▁pl",
      "ace"
    ],
    [
      "aw",
      "a"
    ],
    [
      "▁de",
      "c"
    ],
    [
      "in",
      "ce"
    ],
    [
      "▁pret",
      "ty"
    ],
    [
      "▁sa",
      "id"
    ],
    [
      "u",
      "ally"
    ],
    [
      "▁There",
      "'s"
    ],
    [
      "▁int",
      "erest"
    ],
    [
      "▁well",
      "."
    ],
    [
      "s",
      "h"
    ],
    [
      "▁now",
      ","
    ],
    [
      "er",
      ","
    ],
    [
      "▁any",
      "one"
    ],
    [
      "▁m",
      "ade"
    ],
    [
      "▁ab",
      "le"
    ],
    [
      "ai",
      "l"
    ],
    [
      "▁int",
      "o"
    ],
    [
      "c",
      "ed"
    ],
    [
      "▁th",
      "ree"
    ],
    [
      "▁s",
      "et"
    ],
    [
      "ar",
      "ge"
    ],
    [
      "ert",
      "ain"
    ],
    [
      "a",
      "use"
    ],
    [
      "▁ag",
      "ain"
    ],
    [
      "x",
      "t"
    ],
    [
      "▁b",
      "l"
    ],
    [
      "▁id",
      "ea"
    ],
    [
      "▁g",
      "ood"
    ],
    [
      "ag",
      "i"
    ],
    [
      "▁th",
      "rou"
    ],
    [
      "▁throu",
      "gh"
    ],
    [
      "a",
      "ve"
    ],
    [
      "ce",
      "pt"
    ],
    [
      "▁pl",
      "an"
    ],
    [
      "▁N",
      "ag"
    ],
    [
      "▁Nag",
      "um"
    ],
    [
      "▁Nagum",
      "o"
    ],
    [
      "chieve",
      "ment"
    ],
    [
      "▁su",
      "pp"
    ],
    [
      "f",
      "ul"
    ],
    [
      "re",
      "at"
    ],
    [
      "▁de",
      "al"
    ],
    [
      "▁s",
      "orr"
    ],
    [
      "g",
      "ot"
    ],
    [
      "▁c",
      "ook"
    ],
    [
      "b",
      "er"
    ],
    [
      "▁it",
      ","
    ],
    [
      "▁f",
      "o"
    ],
    [
      "c",
      "us"
    ],
    [
      "ur",
      "n"
    ],
    [
      "▁d",
      "if"
    ],
    [
      "▁dif",
      "f"
    ],
    [
      "n",
      "t"
    ],
    [
      "▁",
      "ent"
    ],
    [
      "ossi",
      "ble"
    ],
    [
      "▁e",
      "very"
    ],
    [
      "e",
      "?"
    ],
    [
      "▁under",
      "st"
    ],
    [
      "iv",
      "al"
    ],
    [
      "w",
      "ay"
    ],
    [
      "▁c",
      "are"
    ],
    [
      "▁",
      "-"
    ],
    [
      "a",
      "it"
    ],
    [
      "▁m",
      "at"
    ],
    [
      "▁E",
      "ven"
    ],
    [
      "▁Y",
      "es,"
    ],
    [
      "d",
      "ay"
    ],
    [
      "▁What",
      "'s"
    ],
    [
      "▁a",
      "p"
    ],
    [
      "▁A",
      "c"
    ],
    [
      "▁a",
      "m"
    ],
    [
      "▁I",
      "ch"
    ],
    [
      "▁f",
      "our"
    ],
    [
      "▁class",
      "."
    ],
    [
      "h",
      "."
    ],
    [
      "▁Nan",
      "ase"
    ],
    [
      "am",
      "i"
    ],
    [
      "s",
      "e."
    ],
    [
      "▁l",
      "it"
    ],
    [
      "▁lit",
      "tle"
    ],
    [
      "t",
      "en"
    ],
    [
      "ot",
      "h"
    ],
    [
      "▁des",
      "erted"
    ],
    [
      "▁w",
      "at"
    ],
    [
      "ou",
      "nd"
    ],
    [
      "▁f",
      "in"
    ],
    [
      "rou",
      "nd"
    ],
    [
      "or",
      "m"
    ],
    [
      "▁rat",
      "her"
    ],
    [
      "▁ne",
      "xt"
    ],
    [
      "▁g",
      "ir"
    ],
    [
      "i",
      "es"
    ],
    [
      "▁underst",
      "and"
    ],
    [
      "▁el",
      "se"
    ],
    [
      "ak",
      "es"
    ],
    [
      "▁A",
      "s"
    ],
    [
      "▁get",
      "ting"
    ],
    [
      "▁out",
      "."
    ],
    [
      "-",
      "D"
    ],
    [
      "re",
      "s"
    ],
    [
      "▁want",
      "s"
    ],
    [
      "is",
      "e"
    ],
    [
      "▁S",
      "u"
    ],
    [
      "▁re",
      "f"
    ],
    [
      "▁Ac",
      "ademic"
    ],
    [
      "▁A",
      "chievement"
    ],
    [
      "▁you",
      "'d"
    ],
    [
      "▁for",
      "ward"
    ],
    [
      "▁W",
      "ould"
    ],
    [
      "iz",
      "e"
    ],
    [
      "iy",
      "a"
    ],
    [
      "z",
      "un"
    ],
    [
      "▁st",
      "ill"
    ],
    [
      "▁s",
      "m"
    ],
    [
      "▁all",
      "."
    ],
    [
      "▁ne",
      "ver"
    ],
    [
      "▁So",
      ","
    ],
    [
      "▁d",
      "et"
    ],
    [
      "i",
      "x"
    ],
    [
      "u",
      "ll"
    ],
    [
      "▁happ",
      "en"
    ],
    [
      "▁un",
      "t"
    ],
    [
      "▁unt",
      "il"
    ],
    [
      "▁m",
      "in"
    ],
    [
      "▁app",
      "ro"
    ],
    [
      "ble",
      "m"
    ],
    [
      "▁K",
      "iy"
    ],
    [
      "▁A",
      "m"
    ],
    [
      "▁you",
      "'ve"
    ],
    [
      "ere",
      "d"
    ],
    [
      "▁wh",
      "i"
    ],
    [
      "en",
      "ce"
    ],
    [
      "▁h",
      "uh?"
    ],
    [
      "▁P",
      "re"
    ],
    [
      "▁ch",
      "ance"
    ],
    [
      "c",
      "lass"
    ],
    [
      "it",
      "y."
    ],
    [
      "▁act",
      "ually"
    ],
    [
      "ak",
      "i"
    ],
    [
      "▁Ich",
      "in"
    ],
    [
      "▁Ichin",
      "ose"
    ],
    [
      "▁all",
      "i"
    ],
    [
      "▁S",
      "ak"
    ],
    [
      "▁ex",
      "p"
    ],
    [
      "o",
      "h"
    ],
    [
      "▁ne",
      "got"
    ],
    [
      "▁negot",
      "i"
    ],
    [
      "▁Yea",
      "h,"
    ],
    [
      "▁b",
      "o"
    ],
    [
      "e",
      "en"
    ],
    [
      "▁str",
      "ong"
    ],
    [
      "▁cour",
      "se"
    ],
    [
      "▁with",
      "out"
    ],
    [
      "on",
      "e."
    ],
    [
      "▁S",
      "t"
    ],
    [
      "▁expell",
      "ed."
    ],
    [
      "▁b",
      "as"
    ],
    [
      "▁B",
      "e"
    ],
    [
      "▁e",
      "qu"
    ],
    [
      "▁me",
      "m"
    ],
    [
      "▁in",
      "ter"
    ],
    [
      "ur",
      "t"
    ],
    [
      "▁Th",
      "ank"
    ],
    [
      "▁Wh",
      "o"
    ],
    [
      "▁pro",
      "blem"
    ],
    [
      "ra",
      "ct"
    ],
    [
      "▁second",
      "-year"
    ],
    [
      "▁lea",
      "st"
    ],
    [
      "ig",
      "n"
    ],
    [
      "▁s",
      "k"
    ],
    [
      "▁We",
      "'re"
    ],
    [
      "▁A",
      "n"
    ],
    [
      "▁b",
      "ad"
    ],
    [
      "▁be",
      "l"
    ],
    [
      "▁The",
      "y"
    ],
    [
      "▁mo",
      "st"
    ],
    [
      "▁p",
      "ri"
    ],
    [
      "com",
      "ing"
    ],
    [
      "as",
      "on"
    ],
    [
      "m",
      "an"
    ],
    [
      "▁class",
      "m"
    ],
    [
      "▁comp",
      "et"
    ],
    [
      "▁qu",
      "est"
    ],
    [
      "▁s",
      "l"
    ],
    [
      "▁c",
      "o"
    ],
    [
      "▁lo",
      "ve"
    ],
    [
      "▁pl",
      "ay"
    ],
    [
      "▁we",
      "'ll"
    ],
    [
      "▁alli",
      "ance"
    ],
    [
      "▁Sak",
      "ay"
    ],
    [
      "▁Sakay",
      "an"
    ],
    [
      "▁Sakayan",
      "agi"
    ],
    [
      "▁ag",
      "ree"
    ],
    [
      "▁s",
      "id"
    ],
    [
      "k",
      "ay"
    ],
    [
      "om",
      "iya"
    ],
    [
      "▁Su",
      "zun"
    ],
    [
      "t",
      "."
    ],
    [
      "▁fr",
      "i"
    ],
    [
      "▁s",
      "it"
    ],
    [
      "e",
      "ly"
    ],
    [
      "▁f",
      "ive"
    ],
    [
      "ly",
      ","
    ],
    [
      "▁alread",
      "y"
    ],
    [
      "i",
      "al"
    ],
    [
      "▁min",
      "ut"
    ],
    [
      "▁a",
      "round"
    ],
    [
      "v",
      "ed"
    ],
    [
      "▁c",
      "ertain"
    ],
    [
      "▁to",
      "p"
    ],
    [
      "▁gu",
      "ess"
    ],
    [
      "▁No",
      ","
    ],
    [
      "▁J",
      "ust"
    ],
    [
      "▁gir",
      "l"
    ],
    [
      "b",
      "e"
    ],
    [
      "▁Kiy",
      "ot"
    ],
    [
      "▁Kiyot",
      "ak"
    ],
    [
      "▁tim",
      "e."
    ],
    [
      "▁Am",
      "as"
    ],
    [
      "▁Th",
      "en"
    ],
    [
      "f",
      "ect"
    ],
    [
      "▁too",
      "."
    ],
    [
      "▁bel",
      "ieve"
    ],
    [
      "▁Ayanokoji",
      "."
    ],
    [
      "▁f",
      "ail"
    ],
    [
      "▁he",
      "'s"
    ],
    [
      "▁m",
      "ind"
    ],
    [
      "▁about",
      "?"
    ],
    [
      "▁H",
      "ave"
    ],
    [
      "▁thing",
      "s"
    ],
    [
      "▁re",
      "ason"
    ],
    [
      "▁anyth",
      "ing"
    ],
    [
      "▁th",
      "ose"
    ],
    [
      "v",
      "ival"
    ],
    [
      "▁M",
      "ay"
    ],
    [
      "▁be",
      "st"
    ],
    [
      "▁appro",
      "ach"
    ],
    [
      "▁c",
      "all"
    ],
    [
      "▁an",
      "other"
    ],
    [
      "▁f",
      "ar"
    ],
    [
      "▁S",
      "orr"
    ],
    [
      "▁T",
      "r"
    ],
    [
      "▁le",
      "ad"
    ],
    [
      "-kun",
      "."
    ],
    [
      "▁supp",
      "os"
    ],
    [
      "▁p",
      "ossible"
    ],
    [
      "▁",
      "\""
    ],
    [
      "am",
      "n"
    ],
    [
      "▁l",
      "at"
    ],
    [
      "ag",
      "ami"
    ],
    [
      "▁Yea",
      "h."
    ],
    [
      "▁kn",
      "if"
    ],
    [
      "▁class",
      "es"
    ],
    [
      "▁re",
      "m"
    ],
    [
      "▁D",
      "id"
    ],
    [
      "▁f",
      "un"
    ],
    [
      "▁fri",
      "end"
    ],
    [
      "▁b",
      "oth"
    ],
    [
      "▁u",
      "s."
    ],
    [
      "es",
      "s."
    ],
    [
      "▁do",
      "ing"
    ],
    [
      "pl",
      "ain"
    ],
    [
      "▁l",
      "ow"
    ],
    [
      "▁mo",
      "ve"
    ],
    [
      "ir",
      "d"
    ],
    [
      "▁det",
      "erm"
    ],
    [
      "▁d",
      "ro"
    ],
    [
      "ion",
      "s"
    ],
    [
      "ur",
      "ing"
    ],
    [
      "▁mo",
      "ving"
    ],
    [
      "▁You",
      "r"
    ],
    [
      "▁con",
      "d"
    ],
    [
      "▁all",
      "ow"
    ],
    [
      "ate",
      "g"
    ],
    [
      "▁s",
      "er"
    ],
    [
      "▁sk",
      "ill"
    ],
    [
      "▁ho",
      "pe"
    ],
    [
      "▁l",
      "ong"
    ],
    [
      "▁them",
      "."
    ],
    [
      "at",
      "ing"
    ],
    [
      "▁dec",
      "id"
    ],
    [
      "▁s",
      "ince"
    ],
    [
      "s",
      "ion"
    ],
    [
      "▁they",
      "'re"
    ],
    [
      "▁my",
      "self"
    ],
    [
      "▁sh",
      "ow"
    ],
    [
      "a",
      "z"
    ],
    [
      "iv",
      "id"
    ],
    [
      "▁up",
      "coming"
    ],
    [
      "▁to",
      "ld"
    ],
    [
      "i",
      "ly"
    ],
    [
      "▁there",
      "'s"
    ],
    [
      "▁r",
      "id"
    ],
    [
      "▁exp",
      "ul"
    ],
    [
      "▁pro",
      "p"
    ],
    [
      "▁penal",
      "t"
    ],
    [
      "c",
      "ess"
    ],
    [
      "ag",
      "e"
    ],
    [
      "▁",
      "5"
    ],
    [
      "e",
      "ad"
    ],
    [
      "▁c",
      "ur"
    ],
    [
      "▁f",
      "ig"
    ],
    [
      "▁Y",
      "agami"
    ],
    [
      "▁will",
      "ing"
    ],
    [
      "▁in",
      "v"
    ],
    [
      "▁Ryuen",
      "-kun"
    ],
    [
      "▁equ",
      "al"
    ],
    [
      "▁expell",
      "ed,"
    ],
    [
      "▁that",
      ","
    ],
    [
      "▁f",
      "a"
    ],
    [
      "▁c",
      "ell"
    ],
    [
      "▁on",
      "ce"
    ],
    [
      "▁this",
      "."
    ],
    [
      "▁wat",
      "ch"
    ],
    [
      "▁ch",
      "ange"
    ],
    [
      "▁re",
      "ach"
    ],
    [
      "ation",
      "."
    ],
    [
      "▁diff",
      "ere"
    ],
    [
      "b",
      "ers"
    ],
    [
      "▁l",
      "arge"
    ],
    [
      "▁t",
      "as"
    ],
    [
      "▁tas",
      "k"
    ],
    [
      "▁ex",
      "t"
    ],
    [
      "▁S",
      "e"
    ],
    [
      "▁T",
      "o"
    ],
    [
      "▁e",
      "as"
    ],
    [
      "▁e",
      "ar"
    ],
    [
      "▁re",
      "l"
    ],
    [
      "▁str",
      "ateg"
    ],
    [
      "▁N",
      "ot"
    ],
    [
      "▁in",
      "c"
    ],
    [
      "re",
      "d"
    ],
    [
      "▁su",
      "ch"
    ],
    [
      "▁Kiyotak",
      "a"
    ],
    [
      "▁Amas",
      "awa"
    ],
    [
      "▁want",
      "ed"
    ],
    [
      "▁c",
      "l"
    ],
    [
      "n",
      "ow"
    ],
    [
      "▁are",
      "n't"
    ],
    [
      "▁up",
      "."
    ],
    [
      "are",
      "d"
    ],
    [
      "▁Pre",
      "sident"
    ],
    [
      "▁pre",
      "p"
    ],
    [
      "▁in",
      "d"
    ],
    [
      "ivid",
      "ual"
    ],
    [
      "▁Horikita",
      "-senpai"
    ],
    [
      "y",
      "s"
    ],
    [
      "a",
      "p"
    ],
    [
      "▁w",
      "r"
    ],
    [
      "▁classm",
      "at"
    ],
    [
      "▁this",
      ","
    ],
    [
      "▁You",
      "'ve"
    ],
    [
      "u",
      "e."
    ],
    [
      "▁as",
      "s"
    ],
    [
      "▁g",
      "reat"
    ],
    [
      "▁qu",
      "ite"
    ],
    [
      "▁p",
      "r"
    ],
    [
      "▁is",
      "n't"
    ],
    [
      "▁right",
      "."
    ],
    [
      "▁c",
      "le"
    ],
    [
      "sh",
      "ip"
    ],
    [
      "▁d",
      "amn"
    ],
    [
      "▁C",
      "an"
    ],
    [
      "▁S",
      "enpai"
    ],
    [
      "▁g",
      "on"
    ],
    [
      "▁gon",
      "na"
    ],
    [
      "▁I",
      "ke"
    ],
    [
      "▁fig",
      "ure"
    ],
    [
      "ill",
      "ion"
    ],
    [
      "▁Sh",
      "in"
    ],
    [
      "▁Shin",
      "oh"
    ],
    [
      "▁Shinoh",
      "ar"
    ],
    [
      "▁p",
      "ick"
    ],
    [
      "▁sure",
      "."
    ],
    [
      "▁mean",
      "?"
    ],
    [
      "end",
      "ing"
    ],
    [
      "▁an",
      "n"
    ],
    [
      "▁ex",
      "am"
    ],
    [
      "▁c",
      "ard"
    ],
    [
      "▁a",
      "r"
    ],
    [
      "ent",
      "."
    ],
    [
      "▁st",
      "op"
    ],
    [
      "ic",
      "al"
    ],
    [
      "u",
      "p"
    ],
    [
      "▁differe",
      "nt"
    ],
    [
      "▁mem",
      "bers"
    ],
    [
      "▁wor",
      "d"
    ],
    [
      "▁t",
      "rou"
    ],
    [
      "▁bec",
      "ome"
    ],
    [
      "▁bec",
      "ause"
    ],
    [
      "v",
      "ent"
    ],
    [
      "▁ho",
      "ld"
    ],
    [
      "r",
      "y"
    ],
    [
      "▁own",
      "."
    ],
    [
      "▁K",
      "ush"
    ],
    [
      "▁Kush",
      "id"
    ],
    [
      "▁Kushid",
      "a"
    ],
    [
      "▁your",
      "self"
    ],
    [
      "▁b",
      "it"
    ],
    [
      "▁ad",
      "v"
    ],
    [
      "ast",
      "e"
    ],
    [
      "▁re",
      "g"
    ],
    [
      "▁tim",
      "e,"
    ],
    [
      "or",
      "n"
    ],
    [
      "▁w",
      "ait"
    ],
    [
      "▁per",
      "fect"
    ],
    [
      "s",
      "ur"
    ],
    [
      "▁gr",
      "ad"
    ],
    [
      "▁con",
      "sid"
    ],
    [
      "▁ac",
      "cept"
    ],
    [
      "il",
      "ity"
    ],
    [
      "▁m",
      "aking"
    ],
    [
      "▁sur",
      "vival"
    ],
    [
      "▁al",
      "s"
    ],
    [
      "▁als",
      "o"
    ],
    [
      "▁w",
      "ent"
    ],
    [
      "▁sorr",
      "y"
    ],
    [
      "▁u",
      "se"
    ],
    [
      "▁re",
      "qu"
    ],
    [
      "▁mat",
      "ter"
    ],
    [
      "▁b",
      "ig"
    ],
    [
      "am",
      "e."
    ],
    [
      "▁imp",
      "ort"
    ],
    [
      "▁import",
      "ant"
    ],
    [
      "▁t",
      "erm"
    ],
    [
      "▁F",
      "or"
    ],
    [
      "▁h",
      "id"
    ],
    [
      "▁work",
      "ing"
    ],
    [
      "▁af",
      "ra"
    ],
    [
      "▁afra",
      "id"
    ],
    [
      ",",
      "00"
    ],
    [
      ",00",
      "0"
    ],
    [
      "▁bet",
      "w"
    ],
    [
      "▁betw",
      "een"
    ],
    [
      "▁cr",
      "u"
    ],
    [
      "s",
      "?"
    ],
    [
      "▁O",
      "f"
    ],
    [
      "al",
      "."
    ],
    [
      "▁ha",
      "ving"
    ],
    [
      "in",
      "ed"
    ],
    [
      "ul",
      "es"
    ],
    [
      "i",
      "ed"
    ],
    [
      "ment",
      "."
    ],
    [
      "v",
      "al"
    ],
    [
      "ri",
      "b"
    ],
    [
      "▁e",
      "ach"
    ],
    [
      "▁m",
      "on"
    ],
    [
      "in",
      "e,"
    ],
    [
      "en",
      "c"
    ],
    [
      "▁N",
      "ow"
    ],
    [
      "▁l",
      "et's"
    ],
    [
      "▁t",
      "able"
    ],
    [
      "▁cond",
      "ition"
    ],
    [
      "▁re",
      "ward"
    ],
    [
      "▁Tsu",
      "k"
    ],
    [
      "▁Tsuk",
      "ish"
    ],
    [
      "▁Tsukish",
      "ir"
    ],
    [
      "▁Tsukishir",
      "o"
    ],
    [
      "▁here",
      ","
    ],
    [
      "▁int",
      "end"
    ],
    [
      "▁fin",
      "e."
    ],
    [
      "▁e",
      "ith"
    ],
    [
      "ar",
      "get"
    ],
    [
      "▁a",
      "w"
    ],
    [
      "▁w",
      "aste"
    ],
    [
      "▁c",
      "ame"
    ],
    [
      "▁in",
      "f"
    ],
    [
      "▁p",
      "ass"
    ],
    [
      "ly",
      "."
    ],
    [
      "ul",
      "t"
    ],
    [
      "▁there",
      "."
    ],
    [
      "▁pre",
      "sident"
    ],
    [
      "▁K",
      "ir"
    ],
    [
      "▁",
      "V"
    ],
    [
      "▁com",
      "pl"
    ],
    [
      "▁ind",
      "ividual"
    ],
    [
      "ve",
      "l"
    ],
    [
      "h",
      "ys"
    ],
    [
      "▁en",
      "em"
    ],
    [
      "▁p",
      "os"
    ],
    [
      "▁in",
      "st"
    ],
    [
      "▁m",
      "akes"
    ],
    [
      "ud",
      "g"
    ],
    [
      "m",
      "en"
    ],
    [
      "▁We",
      "'ve"
    ],
    [
      "at",
      "a"
    ],
    [
      "▁p",
      "ow"
    ],
    [
      "▁prop",
      "os"
    ],
    [
      "en",
      "er"
    ],
    [
      "▁so",
      "on"
    ],
    [
      "ate",
      ","
    ],
    [
      "▁Well",
      "..."
    ],
    [
      "▁al",
      "one"
    ],
    [
      "▁Is",
      "h"
    ],
    [
      "▁sit",
      "uation"
    ],
    [
      "i",
      "ke"
    ],
    [
      "▁cle",
      "ar"
    ],
    [
      "▁A",
      "ll"
    ],
    [
      "▁be",
      "h"
    ],
    [
      "▁Tsu",
      "b"
    ],
    [
      "re",
      "ak"
    ],
    [
      "▁talk",
      "ing"
    ],
    [
      "▁out",
      ","
    ],
    [
      "an",
      "na"
    ],
    [
      "ar",
      "u"
    ],
    [
      "e",
      "f"
    ],
    [
      "▁Sudo",
      "-kun"
    ],
    [
      "▁R",
      "ight"
    ],
    [
      "▁ex",
      "ce"
    ],
    [
      "▁f",
      "ine"
    ],
    [
      "o",
      "g"
    ],
    [
      "▁inv",
      "ol"
    ],
    [
      "ic",
      "i"
    ],
    [
      "▁ag",
      "re"
    ],
    [
      "▁2",
      "0"
    ],
    [
      "▁K",
      "omiya"
    ],
    [
      "▁fo",
      "cus"
    ],
    [
      "▁the",
      "se"
    ],
    [
      "o",
      "d"
    ],
    [
      "▁L",
      "ook"
    ],
    [
      "▁to",
      "m"
    ],
    [
      "ab",
      "l"
    ],
    [
      "ent",
      "ial"
    ],
    [
      "▁st",
      "ay"
    ],
    [
      "ea",
      "ch"
    ],
    [
      "ally",
      ","
    ],
    [
      "al",
      "f"
    ],
    [
      "▁ne",
      "w"
    ],
    [
      "▁re",
      "t"
    ],
    [
      "ation",
      "s"
    ],
    [
      "ire",
      "ct"
    ],
    [
      "▁r",
      "o"
    ],
    [
      "▁th",
      "ing."
    ],
    [
      "an",
      "c"
    ],
    [
      "▁we",
      "'d"
    ],
    [
      "▁r",
      "ank"
    ],
    [
      "▁is",
      "su"
    ],
    [
      "▁ser",
      "ious"
    ],
    [
      "▁n",
      "um"
    ],
    [
      "▁Wh",
      "en"
    ],
    [
      "▁part",
      "icul"
    ],
    [
      "▁particul",
      "ar"
    ],
    [
      "▁sm",
      "art"
    ],
    [
      "▁l",
      "u"
    ],
    [
      "▁dis",
      "cus"
    ],
    [
      "▁discus",
      "s"
    ],
    [
      "▁An",
      "y"
    ],
    [
      "▁re",
      "ad"
    ],
    [
      "▁o",
      "b"
    ],
    [
      "▁m",
      "orn"
    ],
    [
      "▁Nan",
      "as"
    ],
    [
      "▁there",
      ","
    ],
    [
      "▁though",
      "."
    ],
    [
      "ent",
      "ion"
    ],
    [
      "▁an",
      "s"
    ],
    [
      "▁ans",
      "w"
    ],
    [
      "▁w",
      "ond"
    ],
    [
      "l",
      "ed"
    ],
    [
      "▁1",
      "-D"
    ],
    [
      "▁do",
      "."
    ],
    [
      "▁he",
      "ll"
    ],
    [
      "▁him",
      ","
    ],
    [
      "or",
      "d"
    ],
    [
      "▁to",
      "day"
    ],
    [
      "▁t",
      "arget"
    ],
    [
      "▁for",
      "ce"
    ],
    [
      "▁whi",
      "le"
    ],
    [
      "▁G",
      "ot"
    ],
    [
      "▁ask",
      "ed"
    ],
    [
      "▁spe",
      "ak"
    ],
    [
      "▁",
      "#"
    ],
    [
      "▁He",
      "'s"
    ],
    [
      "y",
      "e"
    ],
    [
      "ent",
      "s"
    ],
    [
      "▁She",
      "'s"
    ],
    [
      "▁s",
      "ing"
    ],
    [
      "▁wr",
      "ong"
    ],
    [
      "▁ask",
      "ing"
    ],
    [
      "▁g",
      "ame"
    ],
    [
      "▁h",
      "urt"
    ],
    [
      "u",
      "y"
    ],
    [
      "c",
      "er"
    ],
    [
      "▁ha",
      "ir"
    ],
    [
      "s",
      "ion."
    ],
    [
      "as",
      "ure"
    ],
    [
      "re",
      "t"
    ],
    [
      "class",
      "men"
    ],
    [
      "▁d",
      "ou"
    ],
    [
      "▁dou",
      "b"
    ],
    [
      "▁K",
      "e"
    ],
    [
      "▁de",
      "f"
    ],
    [
      "e",
      "ver"
    ],
    [
      "ou",
      "s."
    ],
    [
      "▁m",
      "one"
    ],
    [
      "is",
      "k"
    ],
    [
      "▁year",
      ","
    ],
    [
      "▁beh",
      "ind"
    ],
    [
      "▁b",
      "reak"
    ],
    [
      "▁know",
      "."
    ],
    [
      "▁w",
      "anna"
    ],
    [
      "▁f",
      "ound"
    ],
    [
      "▁K",
      "aru"
    ],
    [
      "▁Karu",
      "iz"
    ],
    [
      "▁Karuiz",
      "awa"
    ],
    [
      "▁should",
      "n't"
    ],
    [
      "▁partner",
      "s"
    ],
    [
      "▁h",
      "it"
    ],
    [
      "▁figure",
      "d"
    ],
    [
      "▁",
      "("
    ],
    [
      "▁first-year",
      "s."
    ],
    [
      "▁m",
      "ix"
    ],
    [
      "▁classmat",
      "es"
    ],
    [
      "▁up",
      "per"
    ],
    [
      "▁Shinohar",
      "a"
    ],
    [
      "o",
      "ck"
    ],
    [
      "n",
      "ing"
    ],
    [
      "▁s",
      "en"
    ],
    [
      "▁t",
      "aking"
    ],
    [
      "f",
      "t"
    ],
    [
      "▁tr",
      "ue"
    ],
    [
      "▁ann",
      "oun"
    ],
    [
      "v",
      "or"
    ],
    [
      "▁can",
      "."
    ],
    [
      "▁se",
      "en"
    ],
    [
      "▁ex",
      "plain"
    ],
    [
      "orr",
      "ow"
    ],
    [
      "▁re",
      "ce"
    ],
    [
      "▁f",
      "ull"
    ],
    [
      "▁dro",
      "p"
    ],
    [
      "▁ret",
      "urn"
    ],
    [
      "▁it",
      "s"
    ],
    [
      "a",
      "x"
    ],
    [
      "▁ent",
      "ire"
    ],
    [
      "▁re",
      "p"
    ],
    [
      "▁A",
      "d"
    ],
    [
      "an",
      "ced"
    ],
    [
      "▁H",
      "igh"
    ],
    [
      "▁S",
      "chool"
    ],
    [
      "▁D",
      "es"
    ],
    [
      "-",
      "W"
    ],
    [
      "ble",
      "."
    ],
    [
      "▁feel",
      "ing"
    ],
    [
      "▁St",
      "ill"
    ],
    [
      "▁again",
      "st"
    ],
    [
      "▁t",
      "e"
    ],
    [
      "▁are",
      "a"
    ],
    [
      "▁mon",
      "th"
    ],
    [
      "▁aw",
      "are"
    ],
    [
      "-",
      "b"
    ],
    [
      "▁num",
      "ber"
    ],
    [
      "▁not",
      "h"
    ],
    [
      "▁t",
      "akes"
    ],
    [
      "▁lu",
      "ck"
    ],
    [
      "oo",
      "per"
    ],
    [
      "▁got",
      "ten"
    ],
    [
      "ent",
      "y"
    ],
    [
      "▁2",
      "-D"
    ],
    [
      "▁ch",
      "ang"
    ],
    [
      "▁who",
      "le"
    ],
    [
      "▁class",
      ","
    ],
    [
      "▁f",
      "all"
    ],
    [
      "▁whi",
      "ch"
    ],
    [
      "▁w",
      "in"
    ],
    [
      "▁Y",
      "-"
    ],
    [
      "▁Y-",
      "Y"
    ],
    [
      "▁re",
      "c"
    ],
    [
      "▁was",
      "n't"
    ],
    [
      "▁U",
      "m"
    ],
    [
      "▁school",
      ","
    ],
    [
      "▁sp",
      "ot"
    ],
    [
      "▁now",
      "?"
    ],
    [
      "▁school",
      "."
    ],
    [
      "▁fight",
      "ing"
    ],
    [
      "n",
      "ce"
    ],
    [
      "▁way",
      ","
    ],
    [
      "▁O",
      "A"
    ],
    [
      "▁OA",
      "A"
    ],
    [
      "hys",
      "ical"
    ],
    [
      "▁sing",
      "le"
    ],
    [
      "▁way",
      "."
    ],
    [
      "▁quest",
      "ion"
    ],
    [
      "▁M",
      "y"
    ],
    [
      "▁b",
      "us"
    ],
    [
      "▁w",
      "om"
    ],
    [
      "▁wond",
      "er"
    ],
    [
      "▁m",
      "en"
    ],
    [
      "▁C",
      "ould"
    ],
    [
      "▁V",
      "er"
    ],
    [
      "▁Ver",
      "y"
    ],
    [
      "pe",
      "ct"
    ],
    [
      "▁j",
      "udg"
    ],
    [
      "l",
      "ess"
    ],
    [
      "▁rid",
      "icul"
    ],
    [
      "▁try",
      "ing"
    ],
    [
      "at",
      "ive"
    ],
    [
      "▁alread",
      "y."
    ],
    [
      "▁f",
      "act"
    ],
    [
      "▁f",
      "ree"
    ],
    [
      "▁fe",
      "w"
    ],
    [
      "ing",
      "?"
    ],
    [
      "res",
      "s"
    ],
    [
      "on",
      "t"
    ],
    [
      "-",
      "A"
    ],
    [
      "▁wor",
      "ld"
    ],
    [
      "▁group",
      "."
    ],
    [
      "▁penal",
      "ty"
    ],
    [
      "▁form",
      "ed"
    ],
    [
      "▁Ish",
      "iz"
    ],
    [
      "▁Ishiz",
      "aki"
    ],
    [
      "▁suppos",
      "ed"
    ],
    [
      "▁o",
      "pp"
    ],
    [
      "▁ne",
      "cess"
    ],
    [
      "▁necess",
      "ar"
    ],
    [
      "air",
      "man"
    ],
    [
      "▁wor",
      "th"
    ],
    [
      "▁doub",
      "t"
    ],
    [
      "▁prep",
      "ared"
    ],
    [
      "▁Ayanokoji-senpai",
      "."
    ],
    [
      "▁K",
      "az"
    ],
    [
      "▁Kaz",
      "u"
    ],
    [
      "▁Kazu",
      "om"
    ],
    [
      "▁Kazuom",
      "i"
    ],
    [
      "t",
      "a"
    ],
    [
      "▁bo",
      "y"
    ],
    [
      "▁We",
      "'ll"
    ],
    [
      "d",
      "en"
    ],
    [
      "u",
      "g"
    ],
    [
      "l",
      "ve"
    ],
    [
      "▁not",
      "."
    ],
    [
      "▁care",
      "ful"
    ],
    [
      "▁n",
      "ame"
    ],
    [
      "▁He",
      "y."
    ],
    [
      "▁partner",
      "."
    ],
    [
      "▁cour",
      "se."
    ],
    [
      "e",
      "w"
    ],
    [
      "o",
      "y"
    ],
    [
      "▁Suzun",
      "e"
    ],
    [
      "▁exce",
      "ll"
    ],
    [
      "▁excell",
      "ent"
    ],
    [
      "▁ext",
      "re"
    ],
    [
      "▁extre",
      "m"
    ],
    [
      "▁extrem",
      "ely"
    ],
    [
      "▁yet",
      "."
    ],
    [
      "▁v",
      "i"
    ],
    [
      "▁o",
      "kay"
    ],
    [
      "▁he",
      "ard"
    ],
    [
      "ow",
      "ing"
    ],
    [
      "al",
      "m"
    ],
    [
      "le",
      "ct"
    ],
    [
      "▁bas",
      "ed"
    ],
    [
      "▁be",
      "g"
    ],
    [
      "▁agre",
      "em"
    ],
    [
      "▁knif",
      "e"
    ],
    [
      "▁g",
      "l"
    ],
    [
      "em",
      "ber"
    ],
    [
      "ar",
      "m"
    ],
    [
      "i",
      "le"
    ],
    [
      "▁me",
      "ant"
    ],
    [
      "▁down",
      ","
    ],
    [
      "▁v",
      "ie"
    ],
    [
      "▁vie",
      "w"
    ],
    [
      "▁app",
      "re"
    ],
    [
      "▁appre",
      "ci"
    ],
    [
      "▁appreci",
      "ate"
    ],
    [
      "▁im",
      "ag"
    ],
    [
      "sid",
      "e"
    ],
    [
      "▁fa",
      "vor"
    ],
    [
      "▁first",
      "."
    ],
    [
      "▁r",
      "ules"
    ],
    [
      "▁tom",
      "orrow"
    ],
    [
      "id",
      "."
    ],
    [
      "▁spe",
      "c"
    ],
    [
      "▁th",
      "ird"
    ],
    [
      "▁rece",
      "ive"
    ],
    [
      "▁determ",
      "ined"
    ],
    [
      "▁pre",
      "s"
    ],
    [
      "rib",
      "ut"
    ],
    [
      "▁t",
      "abl"
    ],
    [
      "▁Th",
      "es"
    ],
    [
      "▁Thes",
      "e"
    ],
    [
      "▁ch",
      "e"
    ],
    [
      "n",
      "ot"
    ],
    [
      "▁g",
      "ain"
    ],
    [
      "▁group",
      ","
    ],
    [
      "ic",
      "ip"
    ],
    [
      "▁l",
      "ear"
    ],
    [
      "iz",
      "ed"
    ],
    [
      "l",
      "es"
    ],
    [
      "▁student",
      "s."
    ],
    [
      "pp",
      "ed"
    ],
    [
      "▁p",
      "le"
    ],
    [
      "v",
      "anced"
    ],
    [
      "▁N",
      "urt"
    ],
    [
      "▁Nurt",
      "uring"
    ],
    [
      "▁S",
      "pe"
    ],
    [
      "▁E",
      "x"
    ],
    [
      "▁diff",
      "icul"
    ],
    [
      "▁person",
      "al"
    ],
    [
      "i",
      "es."
    ],
    [
      "▁you",
      "!"
    ],
    [
      "▁anyth",
      "ing."
    ],
    [
      "▁cont",
      "ract"
    ],
    [
      "▁much",
      "."
    ],
    [
      "c",
      "ing"
    ],
    [
      "▁K",
      "o"
    ],
    [
      "▁he",
      "'ll"
    ],
    [
      "▁hand",
      "le"
    ],
    [
      "▁be",
      "at"
    ],
    [
      "y",
      "!"
    ],
    [
      "▁m",
      "is"
    ],
    [
      "▁cru",
      "cial"
    ],
    [
      "▁O",
      "ur"
    ],
    [
      "▁Wh",
      "ere"
    ],
    [
      "v",
      "o"
    ],
    [
      "▁read",
      "y"
    ],
    [
      "▁d",
      "irect"
    ],
    [
      "▁G",
      "ood"
    ],
    [
      "▁Nanas",
      "e."
    ],
    [
      "▁man",
      "y"
    ],
    [
      "▁get",
      "s"
    ],
    [
      "at",
      "e."
    ],
    [
      "m",
      "on"
    ],
    [
      "▁st",
      "and"
    ],
    [
      "▁c",
      "ra"
    ],
    [
      "ar",
      "k"
    ],
    [
      "▁year",
      "."
    ],
    [
      "▁inf",
      "orm"
    ],
    [
      "▁head",
      "ing"
    ],
    [
      "▁mean",
      "s"
    ],
    [
      "▁h",
      "alf"
    ],
    [
      "▁strateg",
      "y"
    ],
    [
      "▁m",
      "eth"
    ],
    [
      "▁meth",
      "od"
    ],
    [
      "est",
      "er"
    ],
    [
      "ester",
      "day"
    ],
    [
      "▁pri",
      "or"
    ],
    [
      "▁con",
      "f"
    ],
    [
      "id",
      "ent"
    ],
    [
      "▁Kir",
      "iy"
    ],
    [
      "▁Kiriy",
      "am"
    ],
    [
      "j",
      "ect"
    ],
    [
      "▁compl",
      "et"
    ],
    [
      "▁Th",
      "ough"
    ],
    [
      "al",
      "k"
    ],
    [
      "▁br",
      "other"
    ],
    [
      "▁look",
      "ing"
    ],
    [
      "▁ref",
      "use"
    ],
    [
      "▁A",
      "b"
    ],
    [
      "▁se",
      "lf"
    ],
    [
      "▁S",
      "ure"
    ],
    [
      "▁interest",
      "ed"
    ],
    [
      "▁l",
      "if"
    ],
    [
      "▁May",
      "be"
    ],
    [
      "▁bus",
      "in"
    ],
    [
      "▁certain",
      "ly"
    ],
    [
      "▁forward",
      "."
    ],
    [
      "▁Sorr",
      "y,"
    ],
    [
      "▁Tr",
      "ue."
    ],
    [
      "▁test",
      ","
    ],
    [
      "▁expul",
      "sion"
    ],
    [
      "▁pr",
      "ot"
    ],
    [
      "▁prot",
      "ect"
    ],
    [
      "▁H",
      "uh?"
    ],
    [
      "▁con",
      "cer"
    ],
    [
      "▁concer",
      "n"
    ],
    [
      "▁U",
      "n"
    ],
    [
      "▁br",
      "ing"
    ],
    [
      "▁P",
      "art"
    ],
    [
      "-",
      "B"
    ],
    [
      "▁Se",
      "e"
    ],
    [
      "it",
      "ion."
    ],
    [
      "▁le",
      "ft"
    ],
    [
      "▁h",
      "ate"
    ],
    [
      "▁al",
      "way"
    ],
    [
      "▁me",
      "!"
    ],
    [
      "▁",
      "3"
    ],
    [
      "▁test",
      "?"
    ],
    [
      "▁L",
      "ike"
    ],
    [
      "▁e",
      "ff"
    ],
    [
      "▁Tsub",
      "as"
    ],
    [
      "▁low",
      "er"
    ],
    [
      "▁penalt",
      "y."
    ],
    [
      "▁cont",
      "act"
    ],
    [
      "p",
      "ri"
    ],
    [
      "it",
      "ud"
    ],
    [
      "▁ap",
      "art"
    ],
    [
      "▁Be",
      "c"
    ],
    [
      "▁Bec",
      "ause"
    ],
    [
      "▁suppos",
      "e."
    ],
    [
      "▁Would",
      "n't"
    ],
    [
      "se",
      "lve"
    ],
    [
      "▁sorr",
      "y."
    ],
    [
      "▁expul",
      "sion."
    ],
    [
      "▁O",
      "kay"
    ],
    [
      "-",
      "ch"
    ],
    [
      "i",
      "."
    ],
    [
      "▁cook",
      "ing"
    ],
    [
      "0",
      "%"
    ],
    [
      "▁Ayanokoji-kun",
      "."
    ],
    [
      "▁consid",
      "er"
    ],
    [
      "▁t",
      "urn"
    ],
    [
      "▁inst",
      "ead"
    ],
    [
      "▁second-year",
      "s"
    ],
    [
      "▁R",
      "ik"
    ],
    [
      "▁Rik",
      "u"
    ],
    [
      "-kun",
      "?"
    ],
    [
      "▁m",
      "ad"
    ],
    [
      "▁kn",
      "ew"
    ],
    [
      "▁y",
      "'"
    ],
    [
      "▁y'",
      "k"
    ],
    [
      "▁y'k",
      "now"
    ],
    [
      "▁so",
      "."
    ],
    [
      "▁T",
      "ak"
    ],
    [
      "▁inter",
      "act"
    ],
    [
      "p",
      "r"
    ],
    [
      "▁like",
      "ly"
    ],
    [
      "▁att",
      "em"
    ],
    [
      "▁attem",
      "pt"
    ],
    [
      "▁mone",
      "y"
    ],
    [
      "▁g",
      "ame."
    ],
    [
      "00",
      ",000"
    ],
    [
      "▁ap",
      "ol"
    ],
    [
      "▁apol",
      "og"
    ],
    [
      "▁st",
      "up"
    ],
    [
      "▁b",
      "en"
    ],
    [
      "▁fo",
      "ll"
    ],
    [
      "▁pow",
      "er"
    ],
    [
      "▁lea",
      "ve"
    ],
    [
      "l",
      "ud"
    ],
    [
      "▁wor",
      "ri"
    ],
    [
      "▁score",
      "s"
    ],
    [
      "val",
      "uation"
    ],
    [
      "▁Th",
      "ink"
    ],
    [
      "▁rep",
      "res"
    ],
    [
      "▁feel",
      "s"
    ],
    [
      "▁ch",
      "o"
    ],
    [
      "▁Sakayanagi",
      "-san"
    ],
    [
      "-",
      "p"
    ],
    [
      "▁real",
      "ize"
    ],
    [
      "▁st",
      "ab"
    ],
    [
      "al",
      "e"
    ],
    [
      "▁rem",
      "ember"
    ],
    [
      "▁could",
      "n't"
    ],
    [
      "▁Do",
      "es"
    ],
    [
      "▁exam",
      ","
    ],
    [
      "▁Look",
      "s"
    ],
    [
      "▁C",
      "om"
    ],
    [
      "▁cell",
      "s"
    ],
    [
      "▁spec",
      "if"
    ],
    [
      "▁with",
      "in"
    ],
    [
      "▁r",
      "and"
    ],
    [
      "▁rand",
      "om"
    ],
    [
      "▁b",
      "on"
    ],
    [
      "▁point",
      "."
    ],
    [
      "▁point",
      ","
    ],
    [
      "▁d",
      "ist"
    ],
    [
      "▁determ",
      "ine"
    ],
    [
      "m",
      "er"
    ],
    [
      "enc",
      "y"
    ],
    [
      "▁c",
      "as"
    ],
    [
      "▁cas",
      "e,"
    ],
    [
      "▁che",
      "ck"
    ],
    [
      "▁can",
      "not"
    ],
    [
      "at",
      "ur"
    ],
    [
      "▁ex",
      "ch"
    ],
    [
      "▁Now",
      ","
    ],
    [
      "▁island",
      "."
    ],
    [
      "▁A",
      "ct"
    ],
    [
      "▁Act",
      "ing"
    ],
    [
      "▁m",
      "ain"
    ],
    [
      "▁ac",
      "r"
    ],
    [
      "▁acr",
      "oss"
    ],
    [
      "▁c",
      "a"
    ],
    [
      "u",
      "ff"
    ],
    [
      "▁dro",
      "pped"
    ],
    [
      "▁Ad",
      "vanced"
    ],
    [
      "▁Spe",
      "cial"
    ],
    [
      "ic",
      ","
    ],
    [
      "a",
      ","
    ],
    [
      "▁every",
      "one"
    ],
    [
      "u",
      "h"
    ],
    [
      "▁ne",
      "ed."
    ],
    [
      "▁eith",
      "er"
    ],
    [
      "▁adv",
      "ice"
    ],
    [
      "o",
      "or"
    ],
    [
      "▁Ko",
      "en"
    ],
    [
      "▁Koen",
      "ji"
    ],
    [
      "▁a",
      "im"
    ],
    [
      "▁B",
      "es"
    ],
    [
      "▁Bes",
      "id"
    ],
    [
      "▁Besid",
      "es,"
    ],
    [
      "▁l",
      "ate"
    ],
    [
      "▁re",
      "st"
    ],
    [
      "▁O",
      "r"
    ],
    [
      "▁something",
      "?"
    ],
    [
      "▁m",
      "ot"
    ],
    [
      "▁least",
      "."
    ],
    [
      "▁else",
      ","
    ],
    [
      "▁c",
      "ooper"
    ],
    [
      "▁T",
      "ake"
    ],
    [
      "▁a",
      "vo"
    ],
    [
      "▁decid",
      "ed"
    ],
    [
      "c",
      "use"
    ],
    [
      "▁de",
      "ad"
    ],
    [
      "▁h",
      "ur"
    ],
    [
      "r",
      "y."
    ],
    [
      "▁allow",
      "ed"
    ],
    [
      "▁pl",
      "enty"
    ],
    [
      "▁D",
      "."
    ],
    [
      "▁a",
      "ck"
    ],
    [
      "▁ack",
      "now"
    ],
    [
      "▁acknow",
      "led"
    ],
    [
      "▁acknowled",
      "ge"
    ],
    [
      "▁myself",
      "."
    ],
    [
      "▁A",
      "."
    ],
    [
      "▁Y-Y",
      "ou"
    ],
    [
      "un",
      "n"
    ],
    [
      "▁did",
      "."
    ],
    [
      "▁they",
      "'d"
    ],
    [
      "▁again",
      "."
    ],
    [
      "▁is",
      ","
    ],
    [
      "▁we",
      "'ve"
    ],
    [
      "w",
      "h"
    ],
    [
      "▁y",
      "esterday"
    ],
    [
      "▁r",
      "oom"
    ],
    [
      "▁res",
      "ult"
    ],
    [
      "▁conf",
      "ident"
    ],
    [
      "▁ap",
      "pe"
    ],
    [
      "▁her",
      "."
    ],
    [
      "▁d",
      "one"
    ],
    [
      "▁think",
      "ing"
    ],
    [
      "▁lo",
      "st"
    ],
    [
      "▁b",
      "at"
    ],
    [
      "▁bat",
      "tle"
    ],
    [
      "▁le",
      "vel"
    ],
    [
      "er",
      "?"
    ],
    [
      "ere",
      "."
    ],
    [
      "▁sa",
      "w"
    ],
    [
      "n",
      "g"
    ],
    [
      "▁tal",
      "ent"
    ],
    [
      "▁pos",
      "ition"
    ],
    [
      "▁af",
      "f"
    ],
    [
      "-senpai",
      "."
    ],
    [
      "▁co",
      "ll"
    ],
    [
      "p",
      "ite"
    ],
    [
      "▁de",
      "p"
    ],
    [
      "▁who",
      "'s"
    ],
    [
      "▁M",
      "an"
    ],
    [
      "▁me",
      "asure"
    ],
    [
      "▁student",
      "."
    ],
    [
      "▁O",
      "h?"
    ],
    [
      "▁S",
      "ince"
    ],
    [
      "▁trou",
      "ble"
    ],
    [
      "▁approach",
      "."
    ],
    [
      "▁wh",
      "ere"
    ],
    [
      "▁class",
      "es."
    ],
    [
      "▁res",
      "p"
    ],
    [
      "▁answ",
      "er"
    ],
    [
      "▁You",
      "'d"
    ],
    [
      "▁What",
      "?"
    ],
    [
      "▁requ",
      "ire"
    ],
    [
      "way",
      "."
    ],
    [
      "▁li",
      "st"
    ],
    [
      "▁this",
      "?"
    ],
    [
      "▁",
      "ign"
    ],
    [
      "m",
      "it"
    ],
    [
      "▁s",
      "ign"
    ],
    [
      "▁m",
      "ill"
    ],
    [
      "▁mill",
      "ion."
    ],
    [
      "▁J",
      "u"
    ],
    [
      "▁B",
      "y"
    ],
    [
      "al",
      "ve"
    ],
    [
      "▁com",
      "ing"
    ],
    [
      "or",
      "k"
    ],
    [
      "▁You",
      "'ll"
    ],
    [
      "▁r",
      "isk"
    ],
    [
      "▁every",
      "th"
    ],
    [
      "▁alone",
      ","
    ],
    [
      "▁g",
      "iv"
    ],
    [
      "▁giv",
      "ing"
    ],
    [
      "▁so",
      "l"
    ],
    [
      "▁requ",
      "est"
    ],
    [
      "▁eff",
      "ort"
    ],
    [
      "▁Tsubas",
      "a"
    ],
    [
      "n",
      "ed"
    ],
    [
      "i",
      "ld"
    ],
    [
      "▁rel",
      "ation"
    ],
    [
      "▁relation",
      "ship"
    ],
    [
      "ie",
      "ld"
    ],
    [
      "▁Hosen-kun",
      "."
    ],
    [
      "▁negoti",
      "ate"
    ],
    [
      "▁k",
      "ill"
    ],
    [
      "▁A",
      "pri"
    ],
    [
      "▁Apri",
      "l"
    ],
    [
      "▁stud",
      "y"
    ],
    [
      "▁sid",
      "e"
    ],
    [
      "ri",
      "end"
    ],
    [
      "▁eas",
      "ily"
    ],
    [
      "▁con",
      "v"
    ],
    [
      "ort",
      "un"
    ],
    [
      "▁together",
      "."
    ],
    [
      "▁quest",
      "ion."
    ],
    [
      "▁rat",
      "ing"
    ],
    [
      "▁C",
      ","
    ],
    [
      "oun",
      "t"
    ],
    [
      "es",
      "?"
    ],
    [
      "▁Still",
      ","
    ],
    [
      "v",
      "ious"
    ],
    [
      "▁on",
      "."
    ],
    [
      "▁U",
      "t"
    ],
    [
      "▁Ut",
      "omiya"
    ],
    [
      "▁cur",
      "ious"
    ],
    [
      "▁go",
      ","
    ],
    [
      "▁H",
      "ir"
    ],
    [
      "▁Hir",
      "ata"
    ],
    [
      "▁but",
      "..."
    ],
    [
      "▁h",
      "on"
    ],
    [
      "▁mean",
      ","
    ],
    [
      "-san",
      "?"
    ],
    [
      "▁Hosen",
      "."
    ],
    [
      "▁He",
      "ll"
    ],
    [
      "▁y'know",
      "?"
    ],
    [
      "h",
      "ead"
    ],
    [
      "▁st",
      "re"
    ],
    [
      "▁W",
      "ill"
    ],
    [
      "id",
      "d"
    ],
    [
      "▁p",
      "ast"
    ],
    [
      "▁sur",
      "pr"
    ],
    [
      "ag",
      "g"
    ],
    [
      "▁O",
      "-"
    ],
    [
      "▁O-",
      "O"
    ],
    [
      "▁Right",
      "?"
    ],
    [
      "▁word",
      "s,"
    ],
    [
      "▁ac",
      "ademic"
    ],
    [
      "▁com",
      "es"
    ],
    [
      "▁Suzun",
      "e."
    ],
    [
      "ard",
      "s"
    ],
    [
      "▁P",
      "le"
    ],
    [
      "▁Ple",
      "ase"
    ],
    [
      "▁cur",
      "re"
    ],
    [
      "▁curre",
      "nt"
    ],
    [
      "▁day",
      "."
    ],
    [
      "▁al",
      "ong"
    ],
    [
      "▁him",
      "."
    ],
    [
      "▁vi",
      "ol"
    ],
    [
      "▁viol",
      "ence"
    ],
    [
      "▁imag",
      "ine"
    ],
    [
      "▁p",
      "ot"
    ],
    [
      "▁pot",
      "ential"
    ],
    [
      "▁c",
      "ut"
    ],
    [
      "▁br",
      "and"
    ],
    [
      "▁n",
      "ice"
    ],
    [
      "▁g",
      "ener"
    ],
    [
      "▁su",
      "s"
    ],
    [
      "▁T",
      "ell"
    ],
    [
      "▁foll",
      "owing"
    ],
    [
      "▁pri",
      "v"
    ],
    [
      "▁up",
      "?"
    ],
    [
      "▁el",
      "se."
    ],
    [
      "▁A",
      ","
    ],
    [
      "▁th",
      "r"
    ],
    [
      "▁dis",
      "ad"
    ],
    [
      "▁disad",
      "v"
    ],
    [
      "▁disadv",
      "ant"
    ],
    [
      "▁m",
      "om"
    ],
    [
      "▁hid",
      "ing"
    ],
    [
      "ch",
      "a."
    ],
    [
      "▁li",
      "ve"
    ],
    [
      "f",
      "ici"
    ],
    [
      "▁inc",
      "lud"
    ],
    [
      "▁beg",
      "in"
    ],
    [
      "▁repres",
      "ent"
    ],
    [
      "▁happ",
      "y"
    ],
    [
      "ive",
      "s"
    ],
    [
      "▁int",
      "ention"
    ],
    [
      "▁reg",
      "ard"
    ],
    [
      "▁T",
      "w"
    ],
    [
      "-",
      "t"
    ],
    [
      "▁te",
      "am"
    ],
    [
      "▁now",
      "!"
    ],
    [
      "d",
      "er"
    ],
    [
      "as",
      "h"
    ],
    [
      "▁upper",
      "classmen"
    ],
    [
      "▁may",
      "be"
    ],
    [
      "▁st",
      "at"
    ],
    [
      "▁20",
      "-"
    ],
    [
      "▁20-",
      "m"
    ],
    [
      "▁20-m",
      "illion"
    ],
    [
      "▁equal",
      "s."
    ],
    [
      "▁un",
      "able"
    ],
    [
      "▁m",
      "illion"
    ],
    [
      "▁cr",
      "ush"
    ],
    [
      "▁w",
      "ar"
    ],
    [
      "▁us",
      "ed"
    ],
    [
      "▁he",
      "al"
    ],
    [
      "▁he",
      "art"
    ],
    [
      "▁to",
      "ward"
    ],
    [
      "▁thing",
      "s."
    ],
    [
      "▁out",
      "side"
    ],
    [
      "▁announ",
      "ce"
    ],
    [
      "▁we",
      "e"
    ],
    [
      "▁wee",
      "k"
    ],
    [
      "im",
      "in"
    ],
    [
      "at",
      "ed,"
    ],
    [
      "or",
      "ing"
    ],
    [
      "ag",
      "on"
    ],
    [
      "i",
      "ct"
    ],
    [
      "r",
      "ive"
    ],
    [
      "▁ar",
      "ri"
    ],
    [
      "▁too",
      "l"
    ],
    [
      "▁a",
      "ward"
    ],
    [
      "▁rem",
      "ain"
    ],
    [
      "▁cont",
      "in"
    ],
    [
      "▁start",
      "ing"
    ],
    [
      "▁",
      "z"
    ],
    [
      "▁t",
      "each"
    ],
    [
      "▁exch",
      "ange"
    ],
    [
      "▁are",
      "as"
    ],
    [
      "▁s",
      "w"
    ],
    [
      "▁table",
      "."
    ],
    [
      "▁part",
      "icip"
    ],
    [
      "▁f",
      "ood"
    ],
    [
      "▁G",
      "roup"
    ],
    [
      "e",
      "ch"
    ],
    [
      "▁ro",
      "le"
    ],
    [
      "ance",
      "."
    ],
    [
      "▁l",
      "ack"
    ],
    [
      "▁imp",
      "ossible"
    ],
    [
      "▁pre",
      "vent"
    ],
    [
      "▁course",
      ","
    ],
    [
      "▁c",
      "ir"
    ],
    [
      "▁cir",
      "c"
    ],
    [
      "▁circ",
      "um"
    ],
    [
      "▁circum",
      "st"
    ],
    [
      "▁circumst",
      "anc"
    ],
    [
      "it",
      "s"
    ],
    [
      "▁Is",
      "land"
    ],
    [
      "-W",
      "h"
    ],
    [
      "▁difficul",
      "t"
    ],
    [
      "uh",
      "?!"
    ],
    [
      "▁n",
      "ight"
    ],
    [
      "▁N",
      "orm"
    ],
    [
      "▁rel",
      "ax"
    ],
    [
      "im",
      "e"
    ],
    [
      "▁wor",
      "ry"
    ],
    [
      "i",
      "ven"
    ],
    [
      "▁st",
      "am"
    ],
    [
      "▁stam",
      "in"
    ],
    [
      "▁p",
      "oor"
    ],
    [
      "▁strateg",
      "y."
    ]
  ],
  "piece_to_id": {
    "<unk>": 0,
    "!": 1,
    "\"": 2,
    "#": 3,
    "%": 4,
    "'": 5,
    "(": 6,
    ")": 7,
    "*": 8,
    "+": 9,
    ",": 10,
    "-": 11,
    ".": 12,
    "/": 13,
    "0": 14,
    "1": 15,
    "2": 16,
    "3": 17,
    "4": 18,
    "5": 19,
    "6": 20,
    "7": 21,
    "8": 22,
    "9": 23,
    ":": 24,
    "=": 25,
    "?": 26,
    "A": 27,
    "B": 28,
    "C": 29,
    "D": 30,
    "E": 31,
    "F": 32,
    "G": 33,
    "H": 34,
    "I": 35,
    "J": 36,
    "K": 37,
    "L": 38,
    "M": 39,
    "N": 40,
    "O": 41,
    "P": 42,
    "R": 43,
    "S": 44,
    "T": 45,
    "U": 46,
    "V": 47,
    "W": 48,
    "Y": 49,
    "[": 50,
    "]": 51,
    "a": 52,
    "b": 53,
    "c": 54,
    "d": 55,
    "e": 56,
    "f": 57,
    "g": 58,
    "h": 59,
    "i": 60,
    "j": 61,
    "k": 62,
    "l": 63,
    "m": 64,
    "n": 65,
    "o": 66,
    "p": 67,
    "q": 68,
    "r": 69,
    "s": 70,
    "t": 71,
    "u": 72,
    "v": 73,
    "w": 74,
    "x": 75,
    "y": 76,
    "z": 77,
    "é": 78,
    "—": 79,
    "…": 80,
    "▁": 81,
    "▁t": 82,
    "ou": 83,
    "▁a": 84,
    "▁th": 85,
    "in": 86,
    "▁w": 87,
    "re": 88,
    "▁s": 89,
    "▁I": 90,
    "▁y": 91,
    "on": 92,
    "en": 93,
    "at": 94,
    "▁you": 95,
    "▁to": 96,
    "er": 97,
    "▁m": 98,
    "ll": 99,
    "▁the": 100,
    "an": 101,
    "▁h": 102,
    "it": 103,
    "▁c": 104,
    "▁b": 105,
    "▁f": 106,
    "ing": 107,
    "▁d": 108,
    "st": 109,
    "or": 110,
    "▁p": 111,
    "▁g": 112,
    "ar": 113,
    "▁o": 114,
    "as": 115,
    "ed": 116,
    "is": 117,
    "ve": 118,
    "▁be": 119,
    "▁l": 120,
    "es": 121,
    "'t": 122,
    "om": 123,
    "'s": 124,
    "▁of": 125,
    "▁T": 126,
    "▁n": 127,
    "et": 128,
    "▁Y": 129,
    "▁A": 130,
    "al": 131,
    "▁in": 132,
    "▁an": 133,
    "▁I'": 134,
    "ow": 135,
    "▁W": 136,
    "ot": 137,
    "ent": 138,
    "▁e": 139,
    "▁u": 140,
    "▁that": 141,
    "id": 142,
    "▁me": 143,
    "..": 144,
    "▁Th": 145,
    "▁it": 146,
    "▁H": 147,
    "▁st": 148,
    "ay": 149,
    "ut": 150,
    "▁You": 151,
    "ld": 152,
    "▁S": 153,
    "le": 154,
    "▁on": 155,
    "gh": 156,
    "ke": 157,
    "▁we": 158,
    "▁for": 159,
    "ass": 160,
    "▁re": 161,
    "ith": 162,
    "lass": 163,
    "▁wh": 164,
    "out": 165,
    "ch": 166,
    "ir": 167,
    "ill": 168,
    "▁with": 169,
    "▁is": 170,
    "▁ha": 171,
    "▁he": 172,
    "os": 173,
    "ce": 174,
    "ould": 175,
    "ion": 176,
    "▁Wh": 177,
    "▁se": 178,
    "▁r": 179,
    "ad": 180,
    "im": 181,
    "pe": 182,
    "e.": 183,
    "un": 184,
    "on't": 185,
    "▁your": 186,
    "▁I'm": 187,
    "▁C": 188,
    "if": 189,
    "ud": 190,
    "igh": 191,
    "▁and": 192,
    "ly": 193,
    "ct": 194,
    "'re": 195,
    "▁B": 196,
    "▁ex": 197,
    "oo": 198,
    "n't": 199,
    "s.": 200,
    "art": 201,
    "...": 202,
    "▁will": 203,
    "ust": 204,
    "▁up": 205,
    "ant": 206,
    "est": 207,
    "▁ab": 208,
    "▁as": 209,
    "rou": 210,
    "ight": 211,
    "nd": 212,
    "am": 213,
    "▁this": 214,
    "▁do": 215,
    "▁have": 216,
    "▁can": 217,
    "ic": 218,
    "▁all": 219,
    "▁my": 220,
    "▁The": 221,
    "all": 222,
    "▁not": 223,
    "ear": 224,
    "▁su": 225,
    "▁are": 226,
    "em": 227,
    "ver": 228,
    "▁li": 229,
    "se": 230,
    "▁j": 231,
    "our": 232,
    "ome": 233,
    "▁at": 234,
    "▁stud": 235,
    "-k": 236,
    "-kun": 237,
    "ink": 238,
    "▁N": 239,
    "ak": 240,
    "▁get": 241,
    "▁ne": 242,
    "▁want": 243,
    "▁class": 244,
    "▁D": 245,
    "▁k": 246,
    "▁We": 247,
    "▁if": 248,
    "▁What": 249,
    "her": 250,
    "ore": 251,
    "▁student": 252,
    "▁about": 253,
    "▁think": 254,
    "▁Class": 255,
    "▁It": 256,
    "▁sh": 257,
    "▁like": 258,
    "ur": 259,
    "▁But": 260,
    "▁fr": 261,
    "ake": 262,
    "▁don't": 263,
    "irst": 264,
    "▁out": 265,
    "▁test": 266,
    "and": 267,
    "▁wor": 268,
    "pp": 269,
    "roup": 270,
    "ro": 271,
    "ard": 272,
    "▁That": 273,
    "▁I'll": 274,
    "▁was": 275,
    "ag": 276,
    "▁first": 277,
    "ci": 278,
    "▁so": 279,
    "one": 280,
    "▁part": 281,
    "ven": 282,
    "▁would": 283,
    "▁but": 284,
    "ok": 285,
    "ive": 286,
    "▁If": 287,
    "▁go": 288,
    "▁K": 289,
    "▁group": 290,
    "ji": 291,
    "end": 292,
    "ate": 293,
    "ter": 294,
    "ble": 295,
    "▁tr": 296,
    "ally": 297,
    "▁any": 298,
    "▁did": 299,
    "▁just": 300,
    "oko": 301,
    "▁what": 302,
    "▁Ay": 303,
    "anoko": 304,
    "anokoji": 305,
    "▁O": 306,
    "-s": 307,
    "ea": 308,
    "▁Ayanokoji": 309,
    "▁con": 310,
    "ul": 311,
    "▁from": 312,
    "ai": 313,
    "▁expe": 314,
    "▁R": 315,
    "y.": 316,
    "▁kn": 317,
    "es.": 318,
    "osen": 319,
    "ation": 320,
    "ere": 321,
    "ain": 322,
    "▁Hosen": 323,
    "▁our": 324,
    "ck": 325,
    "ind": 326,
    "s,": 327,
    "ner": 328,
    "-y": 329,
    "'ll": 330,
    "us": 331,
    "-year": 332,
    "ed.": 333,
    "qu": 334,
    "▁now": 335,
    "▁ch": 336,
    "ough": 337,
    "▁de": 338,
    "▁one": 339,
    "▁partner": 340,
    "▁spe": 341,
    "ing.": 342,
    "▁And": 343,
    "th": 344,
    "▁He": 345,
    "e,": 346,
    "▁who": 347,
    "▁That's": 348,
    "▁here": 349,
    "▁tim": 350,
    "cial": 351,
    "▁int": 352,
    "▁al": 353,
    "▁some": 354,
    "▁work": 355,
    "▁pre": 356,
    "▁pl": 357,
    "▁right": 358,
    "▁So": 359,
    "▁they": 360,
    "oin": 361,
    "ri": 362,
    "ool": 363,
    "▁You're": 364,
    "▁M": 365,
    "▁know": 366,
    "▁you're": 367,
    "▁com": 368,
    "▁you.": 369,
    "ook": 370,
    "ment": 371,
    "▁un": 372,
    "ess": 373,
    "▁then": 374,
    "▁off": 375,
    "enp": 376,
    "enpai": 377,
    "ie": 378,
    "'d": 379,
    "▁seem": 380,
    "▁won't": 381,
    "▁see": 382,
    "▁L": 383,
    "▁expell": 384,
    "ast": 385,
    "▁more": 386,
    "▁It's": 387,
    "ame": 388,
    "ik": 389,
    "▁us": 390,
    "▁sure": 391,
    "▁first-year": 392,
    "chool": 393,
    "▁P": 394,
    "▁her": 395,
    "y,": 396,
    "h,": 397,
    "▁there": 398,
    "ong": 399,
    "?!": 400,
    "ose": 401,
    "ge": 402,
    "▁tal": 403,
    "▁didn't": 404,
    "ance": 405,
    "▁it's": 406,
    "▁how": 407,
    "▁could": 408,
    "oun": 409,
    "▁E": 410,
    "'ve": 411,
    "ita": 412,
    "ig": 413,
    "▁him": 414,
    "▁year": 415,
    "▁were": 416,
    "▁af": 417,
    "▁ask": 418,
    "▁or": 419,
    "▁make": 420,
    "iz": 421,
    "ers": 422,
    "▁way": 423,
    "um": 424,
    "▁got": 425,
    "▁no": 426,
    "ert": 427,
    "ree": 428,
    "▁pro": 429,
    "▁too": 430,
    "▁it.": 431,
    "▁special": 432,
    "ell": 433,
    "op": 434,
    "▁school": 435,
    "very": 436,
    "ite": 437,
    "▁ag": 438,
    "ra": 439,
    "are": 440,
    "▁Sh": 441,
    "▁talk": 442,
    "ty": 443,
    "▁I've": 444,
    "-senpai": 445,
    "el": 446,
    "▁should": 447,
    "▁by": 448,
    "▁ot": 449,
    "▁other": 450,
    "▁students": 451,
    "▁going": 452,
    "▁me.": 453,
    "▁Hor": 454,
    "▁Horik": 455,
    "▁Horikita": 456,
    "▁need": 457,
    "il": 458,
    "sid": 459,
    "ure": 460,
    "iv": 461,
    "iy": 462,
    "▁mo": 463,
    "es,": 464,
    "▁G": 465,
    "ack": 466,
    "▁en": 467,
    "▁say": 468,
    "▁you?": 469,
    "orr": 470,
    "▁F": 471,
    "ond": 472,
    "▁really": 473,
    "▁bet": 474,
    "▁even": 475,
    "▁can't": 476,
    "▁take": 477,
    "▁und": 478,
    "et's": 479,
    "▁Is": 480,
    "▁I'd": 481,
    "▁im": 482,
    "▁that.": 483,
    "get": 484,
    "ed,": 485,
    "ous": 486,
    "▁mean": 487,
    "▁start": 488,
    "▁has": 489,
    "▁sc": 490,
    "▁than": 491,
    "ieve": 492,
    "ward": 493,
    "▁Well": 494,
    "pl": 495,
    "ach": 496,
    "able": 497,
    "ol": 498,
    "lf": 499,
    "▁sa": 500,
    "-san": 501,
    "▁Hosen-kun": 502,
    "▁There": 503,
    "▁does": 504,
    "▁over": 505,
    "oint": 506,
    "▁under": 507,
    "▁them": 508,
    "ood": 509,
    "ting": 510,
    "▁someone": 511,
    "▁qu": 512,
    "▁hel": 513,
    "▁help": 514,
    "▁str": 515,
    "▁fe": 516,
    "▁thing": 517,
    "▁why": 518,
    "su": 519,
    "▁though": 520,
    "▁gu": 521,
    "own": 522,
    "▁app": 523,
    "land": 524,
    "pt": 525,
    "▁time": 526,
    "ine": 527,
    "oss": 528,
    "ish": 529,
    "er.": 530,
    "▁How": 531,
    "▁only": 532,
    "▁come": 533,
    "ving": 534,
    "ep": 535,
    "▁may": 536,
    "00": 537,
    "▁point": 538,
    "▁you,": 539,
    "ion.": 540,
    "▁first-years": 541,
    "▁act": 542,
    "ip": 543,
    "▁give": 544,
    "use": 545,
    "eth": 546,
    "per": 547,
    "h?": 548,
    "▁2": 549,
    "▁Yea": 550,
    "air": 551,
    "▁sec": 552,
    "▁form": 553,
    "wn": 554,
    "▁ac": 555,
    "ase": 556,
    "▁seems": 557,
    "▁Let's": 558,
    "▁coun": 559,
    "▁le": 560,
    "▁Yes.": 561,
    "yu": 562,
    "▁his": 563,
    "▁after": 564,
    "▁island": 565,
    "▁when": 566,
    "▁look": 567,
    "▁cont": 568,
    "ort": 569,
    "▁imp": 570,
    "ect": 571,
    "▁test.": 572,
    "eop": 573,
    "eople": 574,
    "▁offer": 575,
    "ade": 576,
    "▁down": 577,
    "▁v": 578,
    "▁des": 579,
    "▁gr": 580,
    "ab": 581,
    "▁lo": 582,
    "▁ho": 583,
    "▁rat": 584,
    "▁end": 585,
    "a.": 586,
    "▁she": 587,
    "oom": 588,
    "act": 589,
    "tle": 590,
    "▁feel": 591,
    "▁Why": 592,
    "▁tw": 593,
    "▁1": 594,
    "erm": 595,
    "fore": 596,
    "▁In": 597,
    "▁own": 598,
    "ice": 599,
    "▁me?": 600,
    "self": 601,
    "▁som": 602,
    "▁Nan": 603,
    "▁that's": 604,
    "▁Hey,": 605,
    "▁very": 606,
    "▁then?": 607,
    "▁people": 608,
    "▁Ryu": 609,
    "▁Ryuen": 610,
    "▁meet": 611,
    "▁el": 612,
    "enal": 613,
    "▁same": 614,
    "▁their": 615,
    "▁This": 616,
    "erson": 617,
    "uch": 618,
    "▁id": 619,
    "▁back": 620,
    "▁before": 621,
    "▁expelled": 622,
    "▁res": 623,
    "▁fight": 624,
    "▁see.": 625,
    "▁well": 626,
    "▁pay": 627,
    "▁Ayanokoji-kun": 628,
    "ity": 629,
    "▁head": 630,
    "▁last": 631,
    "▁Well,": 632,
    "▁toget": 633,
    "▁together": 634,
    "▁U": 635,
    "▁groups": 636,
    "▁day": 637,
    "▁happ": 638,
    "▁penal": 639,
    "ist": 640,
    "ank": 641,
    "icul": 642,
    "▁No": 643,
    "▁much": 644,
    "▁try": 645,
    "▁wouldn't": 646,
    "▁someth": 647,
    "▁Oh,": 648,
    "▁me,": 649,
    "▁expect": 650,
    "▁that?": 651,
    "com": 652,
    "erest": 653,
    "▁right?": 654,
    "▁real": 655,
    "▁Do": 656,
    "▁second": 657,
    "ire": 658,
    "▁person": 659,
    "▁thought": 660,
    "▁find": 661,
    "▁might": 662,
    "ace": 663,
    "aw": 664,
    "▁you'll": 665,
    "▁haven": 666,
    "▁haven't": 667,
    "▁score": 668,
    "▁been": 669,
    "▁had": 670,
    "▁Sud": 671,
    "▁Sudo": 672,
    "▁now.": 673,
    "▁let": 674,
    "other": 675,
    "adem": 676,
    "ademic": 677,
    "▁kind": 678,
    "chieve": 679,
    "▁cour": 680,
    "ick": 681,
    "▁yet": 682,
    "▁Are": 683,
    "ff": 684,
    "ition": 685,
    "▁bec": 686,
    "ated": 687,
    "ossi": 688,
    "ing,": 689,
    "▁anyth": 690,
    "▁J": 691,
    "▁high": 692,
    "ious": 693,
    "▁att": 694,
    "▁pret": 695,
    "ang": 696,
    "uation": 697,
    "▁White": 698,
    "▁Room": 699,
    "▁sp": 700,
    "uh?": 701,
    "▁ke": 702,
    "▁counci": 703,
    "▁council": 704,
    "▁br": 705,
    "▁better": 706,
    "▁Ayanokoji-senpai": 707,
    "▁man": 708,
    "aking": 709,
    "▁hard": 710,
    "▁alre": 711,
    "▁alread": 712,
    "ush": 713,
    "▁dis": 714,
    "▁must": 715,
    "▁it?": 716,
    "▁join": 717,
    "▁we're": 718,
    "▁ad": 719,
    "▁something": 720,
    "▁She": 721,
    "▁lea": 722,
    "▁lot": 723,
    "▁then.": 724,
    "▁keep": 725,
    "▁trust": 726,
    "sident": 727,
    "▁comp": 728,
    "▁pair": 729,
    "na": 730,
    "▁cr": 731,
    "▁hand": 732,
    "ue": 733,
    "▁doesn't": 734,
    "▁being": 735,
    "erted": 736,
    "▁two": 737,
    "▁per": 738,
    "ange": 739,
    "▁Tsu": 740,
    "▁here.": 741,
    "▁sur": 742,
    "ual": 743,
    "▁enough": 744,
    "▁put": 745,
    "▁Don't": 746,
    "▁tell": 747,
    "▁place": 748,
    "awa": 749,
    "▁dec": 750,
    "ince": 751,
    "▁pretty": 752,
    "▁said": 753,
    "ually": 754,
    "▁There's": 755,
    "▁interest": 756,
    "▁well.": 757,
    "sh": 758,
    "▁now,": 759,
    "er,": 760,
    "▁anyone": 761,
    "▁made": 762,
    "▁able": 763,
    "ail": 764,
    "▁into": 765,
    "ced": 766,
    "▁three": 767,
    "▁set": 768,
    "arge": 769,
    "ertain": 770,
    "ause": 771,
    "▁again": 772,
    "xt": 773,
    "▁bl": 774,
    "▁idea": 775,
    "▁good": 776,
    "agi": 777,
    "▁throu": 778,
    "▁through": 779,
    "ave": 780,
    "cept": 781,
    "▁plan": 782,
    "▁Nag": 783,
    "▁Nagum": 784,
    "▁Nagumo": 785,
    "chievement": 786,
    "▁supp": 787,
    "ful": 788,
    "reat": 789,
    "▁deal": 790,
    "▁sorr": 791,
    "got": 792,
    "▁cook": 793,
    "ber": 794,
    "▁it,": 795,
    "▁fo": 796,
    "cus": 797,
    "urn": 798,
    "▁dif": 799,
    "▁diff": 800,
    "nt": 801,
    "▁ent": 802,
    "ossible": 803,
    "▁every": 804,
    "e?": 805,
    "▁underst": 806,
    "ival": 807,
    "way": 808,
    "▁care": 809,
    "▁-": 810,
    "ait": 811,
    "▁mat": 812,
    "▁Even": 813,
    "▁Yes,": 814,
    "day": 815,
    "▁What's": 816,
    "▁ap": 817,
    "▁Ac": 818,
    "▁am": 819,
    "▁Ich": 820,
    "▁four": 821,
    "▁class.": 822,
    "h.": 823,
    "▁Nanase": 824,
    "ami": 825,
    "se.": 826,
    "▁lit": 827,
    "▁little": 828,
    "ten": 829,
    "oth": 830,
    "▁deserted": 831,
    "▁wat": 832,
    "ound": 833,
    "▁fin": 834,
    "round": 835,
    "orm": 836,
    "▁rather": 837,
    "▁next": 838,
    "▁gir": 839,
    "ies": 840,
    "▁understand": 841,
    "▁else": 842,
    "akes": 843,
    "▁As": 844,
    "▁getting": 845,
    "▁out.": 846,
    "-D": 847,
    "res": 848,
    "▁wants": 849,
    "ise": 850,
    "▁Su": 851,
    "▁ref": 852,
    "▁Academic": 853,
    "▁Achievement": 854,
    "▁you'd": 855,
    "▁forward": 856,
    "▁Would": 857,
    "ize": 858,
    "iya": 859,
    "zun": 860,
    "▁still": 861,
    "▁sm": 862,
    "▁all.": 863,
    "▁never": 864,
    "▁So,": 865,
    "▁det": 866,
    "ix": 867,
    "ull": 868,
    "▁happen": 869,
    "▁unt": 870,
    "▁until": 871,
    "▁min": 872,
    "▁appro": 873,
    "blem": 874,
    "▁Kiy": 875,
    "▁Am": 876,
    "▁you've": 877,
    "ered": 878,
    "▁whi": 879,
    "ence": 880,
    "▁huh?": 881,
    "▁Pre": 882,
    "▁chance": 883,
    "class": 884,
    "ity.": 885,
    "▁actually": 886,
    "aki": 887,
    "▁Ichin": 888,
    "▁Ichinose": 889,
    "▁alli": 890,
    "▁Sak": 891,
    "▁exp": 892,
    "oh": 893,
    "▁negot": 894,
    "▁negoti": 895,
    "▁Yeah,": 896,
    "▁bo": 897,
    "een": 898,
    "▁strong": 899,
    "▁course": 900,
    "▁without": 901,
    "one.": 902,
    "▁St": 903,
    "▁expelled.": 904,
    "▁bas": 905,
    "▁Be": 906,
    "▁equ": 907,
    "▁mem": 908,
    "▁inter": 909,
    "urt": 910,
    "▁Thank": 911,
    "▁Who": 912,
    "▁problem": 913,
    "ract": 914,
    "▁second-year": 915,
    "▁least": 916,
    "ign": 917,
    "▁sk": 918,
    "▁We're": 919,
    "▁An": 920,
    "▁bad": 921,
    "▁bel": 922,
    "▁They": 923,
    "▁most": 924,
    "▁pri": 925,
    "coming": 926,
    "ason": 927,
    "man": 928,
    "▁classm": 929,
    "▁compet": 930,
    "▁quest": 931,
    "▁sl": 932,
    "▁co": 933,
    "▁love": 934,
    "▁play": 935,
    "▁we'll": 936,
    "▁alliance": 937,
    "▁Sakay": 938,
    "▁Sakayan": 939,
    "▁Sakayanagi": 940,
    "▁agree": 941,
    "▁sid": 942,
    "kay": 943,
    "omiya": 944,
    "▁Suzun": 945,
    "t.": 946,
    "▁fri": 947,
    "▁sit": 948,
    "ely": 949,
    "▁five": 950,
    "ly,": 951,
    "▁already": 952,
    "ial": 953,
    "▁minut": 954,
    "▁around": 955,
    "ved": 956,
    "▁certain": 957,
    "▁top": 958,
    "▁guess": 959,
    "▁No,": 960,
    "▁Just": 961,
    "▁girl": 962,
    "be": 963,
    "▁Kiyot": 964,
    "▁Kiyotak": 965,
    "▁time.": 966,
    "▁Amas": 967,
    "▁Then": 968,
    "fect": 969,
    "▁too.": 970,
    "▁believe": 971,
    "▁Ayanokoji.": 972,
    "▁fail": 973,
    "▁he's": 974,
    "▁mind": 975,
    "▁about?": 976,
    "▁Have": 977,
    "▁things": 978,
    "▁reason": 979,
    "▁anything": 980,
    "▁those": 981,
    "vival": 982,
    "▁May": 983,
    "▁best": 984,
    "▁approach": 985,
    "▁call": 986,
    "▁another": 987,
    "▁far": 988,
    "▁Sorr": 989,
    "▁Tr": 990,
    "▁lead": 991,
    "-kun.": 992,
    "▁suppos": 993,
    "▁possible": 994,
    "▁\"": 995,
    "amn": 996,
    "▁lat": 997,
    "agami": 998,
    "▁Yeah.": 999,
    "▁knif": 1000,
    "▁classes": 1001,
    "▁rem": 1002,
    "▁Did": 1003,
    "▁fun": 1004,
    "▁friend": 1005,
    "▁both": 1006,
    "▁us.": 1007,
    "ess.": 1008,
    "▁doing": 1009,
    "plain": 1010,
    "▁low": 1011,
    "▁move": 1012,
    "ird": 1013,
    "▁determ": 1014,
    "▁dro": 1015,
    "ions": 1016,
    "uring": 1017,
    "▁moving": 1018,
    "▁Your": 1019,
    "▁cond": 1020,
    "▁allow": 1021,
    "ateg": 1022,
    "▁ser": 1023,
    "▁skill": 1024,
    "▁hope": 1025,
    "▁long": 1026,
    "▁them.": 1027,
    "ating": 1028,
    "▁decid": 1029,
    "▁since": 1030,
    "sion": 1031,
    "▁they're": 1032,
    "▁myself": 1033,
    "▁show": 1034,
    "az": 1035,
    "ivid": 1036,
    "▁upcoming": 1037,
    "▁told": 1038,
    "ily": 1039,
    "▁there's": 1040,
    "▁rid": 1041,
    "▁expul": 1042,
    "▁prop": 1043,
    "▁penalt": 1044,
    "cess": 1045,
    "age": 1046,
    "▁5": 1047,
    "ead": 1048,
    "▁cur": 1049,
    "▁fig": 1050,
    "▁Yagami": 1051,
    "▁willing": 1052,
    "▁inv": 1053,
    "▁Ryuen-kun": 1054,
    "▁equal": 1055,
    "▁expelled,": 1056,
    "▁that,": 1057,
    "▁fa": 1058,
    "▁cell": 1059,
    "▁once": 1060,
    "▁this.": 1061,
    "▁watch": 1062,
    "▁change": 1063,
    "▁reach": 1064,
    "ation.": 1065,
    "▁differe": 1066,
    "bers": 1067,
    "▁large": 1068,
    "▁tas": 1069,
    "▁task": 1070,
    "▁ext": 1071,
    "▁Se": 1072,
    "▁To": 1073,
    "▁eas": 1074,
    "▁ear": 1075,
    "▁rel": 1076,
    "▁strateg": 1077,
    "▁Not": 1078,
    "▁inc": 1079,
    "red": 1080,
    "▁such": 1081,
    "▁Kiyotaka": 1082,
    "▁Amasawa": 1083,
    "▁wanted": 1084,
    "▁cl": 1085,
    "now": 1086,
    "▁aren't": 1087,
    "▁up.": 1088,
    "ared": 1089,
    "▁President": 1090,
    "▁prep": 1091,
    "▁ind": 1092,
    "ividual": 1093,
    "▁Horikita-senpai": 1094,
    "ys": 1095,
    "ap": 1096,
    "▁wr": 1097,
    "▁classmat": 1098,
    "▁this,": 1099,
    "▁You've": 1100,
    "ue.": 1101,
    "▁ass": 1102,
    "▁great": 1103,
    "▁quite": 1104,
    "▁pr": 1105,
    "▁isn't": 1106,
    "▁right.": 1107,
    "▁cle": 1108,
    "ship": 1109,
    "▁damn": 1110,
    "▁Can": 1111,
    "▁Senpai": 1112,
    "▁gon": 1113,
    "▁gonna": 1114,
    "▁Ike": 1115,
    "▁figure": 1116,
    "illion": 1117,
    "▁Shin": 1118,
    "▁Shinoh": 1119,
    "▁Shinohar": 1120,
    "▁pick": 1121,
    "▁sure.": 1122,
    "▁mean?": 1123,
    "ending": 1124,
    "▁ann": 1125,
    "▁exam": 1126,
    "▁card": 1127,
    "▁ar": 1128,
    "ent.": 1129,
    "▁stop": 1130,
    "ical": 1131,
    "up": 1132,
    "▁different": 1133,
    "▁members": 1134,
    "▁word": 1135,
    "▁trou": 1136,
    "▁become": 1137,
    "▁because": 1138,
    "vent": 1139,
    "▁hold": 1140,
    "ry": 1141,
    "▁own.": 1142,
    "▁Kush": 1143,
    "▁Kushid": 1144,
    "▁Kushida": 1145,
    "▁yourself": 1146,
    "▁bit": 1147,
    "▁adv": 1148,
    "aste": 1149,
    "▁reg": 1150,
    "▁time,": 1151,
    "orn": 1152,
    "▁wait": 1153,
    "▁perfect": 1154,
    "sur": 1155,
    "▁grad": 1156,
    "▁consid": 1157,
    "▁accept": 1158,
    "ility": 1159,
    "▁making": 1160,
    "▁survival": 1161,
    "▁als": 1162,
    "▁also": 1163,
    "▁went": 1164,
    "▁sorry": 1165,
    "▁use": 1166,
    "▁requ": 1167,
    "▁matter": 1168,
    "▁big": 1169,
    "ame.": 1170,
    "▁import": 1171,
    "▁important": 1172,
    "▁term": 1173,
    "▁For": 1174,
    "▁hid": 1175,
    "▁working": 1176,
    "▁afra": 1177,
    "▁afraid": 1178,
    ",00": 1179,
    ",000": 1180,
    "▁betw": 1181,
    "▁between": 1182,
    "▁cru": 1183,
    "s?": 1184,
    "▁Of": 1185,
    "al.": 1186,
    "▁having": 1187,
    "ined": 1188,
    "ules": 1189,
    "ied": 1190,
    "ment.": 1191,
    "val": 1192,
    "rib": 1193,
    "▁each": 1194,
    "▁mon": 1195,
    "ine,": 1196,
    "enc": 1197,
    "▁Now": 1198,
    "▁let's": 1199,
    "▁table": 1200,
    "▁condition": 1201,
    "▁reward": 1202,
    "▁Tsuk": 1203,
    "▁Tsukish": 1204,
    "▁Tsukishir": 1205,
    "▁Tsukishiro": 1206,
    "▁here,": 1207,
    "▁intend": 1208,
    "▁fine.": 1209,
    "▁eith": 1210,
    "arget": 1211,
    "▁aw": 1212,
    "▁waste": 1213,
    "▁came": 1214,
    "▁inf": 1215,
    "▁pass": 1216,
    "ly.": 1217,
    "ult": 1218,
    "▁there.": 1219,
    "▁president": 1220,
    "▁Kir": 1221,
    "▁V": 1222,
    "▁compl": 1223,
    "▁individual": 1224,
    "vel": 1225,
    "hys": 1226,
    "▁enem": 1227,
    "▁pos": 1228,
    "▁inst": 1229,
    "▁makes": 1230,
    "udg": 1231,
    "men": 1232,
    "▁We've": 1233,
    "ata": 1234,
    "▁pow": 1235,
    "▁propos": 1236,
    "ener": 1237,
    "▁soon": 1238,
    "ate,": 1239,
    "▁Well...": 1240,
    "▁alone": 1241,
    "▁Ish": 1242,
    "▁situation": 1243,
    "ike": 1244,
    "▁clear": 1245,
    "▁All": 1246,
    "▁beh": 1247,
    "▁Tsub": 1248,
    "reak": 1249,
    "▁talking": 1250,
    "▁out,": 1251,
    "anna": 1252,
    "aru": 1253,
    "ef": 1254,
    "▁Sudo-kun": 1255,
    "▁Right": 1256,
    "▁exce": 1257,
    "▁fine": 1258,
    "og": 1259,
    "▁invol": 1260,
    "ici": 1261,
    "▁agre": 1262,
    "▁20": 1263,
    "▁Komiya": 1264,
    "▁focus": 1265,
    "▁these": 1266,
    "od": 1267,
    "▁Look": 1268,
    "▁tom": 1269,
    "abl": 1270,
    "ential": 1271,
    "▁stay": 1272,
    "each": 1273,
    "ally,": 1274,
    "alf": 1275,
    "▁new": 1276,
    "▁ret": 1277,
    "ations": 1278,
    "irect": 1279,
    "▁ro": 1280,
    "▁thing.": 1281,
    "anc": 1282,
    "▁we'd": 1283,
    "▁rank": 1284,
    "▁issu": 1285,
    "▁serious": 1286,
    "▁num": 1287,
    "▁When": 1288,
    "▁particul": 1289,
    "▁particular": 1290,
    "▁smart": 1291,
    "▁lu": 1292,
    "▁discus": 1293,
    "▁discuss": 1294,
    "▁Any": 1295,
    "▁read": 1296,
    "▁ob": 1297,
    "▁morn": 1298,
    "▁Nanas": 1299,
    "▁there,": 1300,
    "▁though.": 1301,
    "ention": 1302,
    "▁ans": 1303,
    "▁answ": 1304,
    "▁wond": 1305,
    "led": 1306,
    "▁1-D": 1307,
    "▁do.": 1308,
    "▁hell": 1309,
    "▁him,": 1310,
    "ord": 1311,
    "▁today": 1312,
    "▁target": 1313,
    "▁force": 1314,
    "▁while": 1315,
    "▁Got": 1316,
    "▁asked": 1317,
    "▁speak": 1318,
    "▁#": 1319,
    "▁He's": 1320,
    "ye": 1321,
    "ents": 1322,
    "▁She's": 1323,
    "▁sing": 1324,
    "▁wrong": 1325,
    "▁asking": 1326,
    "▁game": 1327,
    "▁hurt": 1328,
    "uy": 1329,
    "cer": 1330,
    "▁hair": 1331,
    "sion.": 1332,
    "asure": 1333,
    "ret": 1334,
    "classmen": 1335,
    "▁dou": 1336,
    "▁doub": 1337,
    "▁Ke": 1338,
    "▁def": 1339,
    "ever": 1340,
    "ous.": 1341,
    "▁mone": 1342,
    "isk": 1343,
    "▁year,": 1344,
    "▁behind": 1345,
    "▁break": 1346,
    "▁know.": 1347,
    "▁wanna": 1348,
    "▁found": 1349,
    "▁Karu": 1350,
    "▁Karuiz": 1351,
    "▁Karuizawa": 1352,
    "▁shouldn't": 1353,
    "▁partners": 1354,
    "▁hit": 1355,
    "▁figured": 1356,
    "▁(": 1357,
    "▁first-years.": 1358,
    "▁mix": 1359,
    "▁classmates": 1360,
    "▁upper": 1361,
    "▁Shinohara": 1362,
    "ock": 1363,
    "ning": 1364,
    "▁sen": 1365,
    "▁taking": 1366,
    "ft": 1367,
    "▁true": 1368,
    "▁announ": 1369,
    "vor": 1370,
    "▁can.": 1371,
    "▁seen": 1372,
    "▁explain": 1373,
    "orrow": 1374,
    "▁rece": 1375,
    "▁full": 1376,
    "▁drop": 1377,
    "▁return": 1378,
    "▁its": 1379,
    "ax": 1380,
    "▁entire": 1381,
    "▁rep": 1382,
    "▁Ad": 1383,
    "anced": 1384,
    "▁High": 1385,
    "▁School": 1386,
    "▁Des": 1387,
    "-W": 1388,
    "ble.": 1389,
    "▁feeling": 1390,
    "▁Still": 1391,
    "▁against": 1392,
    "▁te": 1393,
    "▁area": 1394,
    "▁month": 1395,
    "▁aware": 1396,
    "-b": 1397,
    "▁number": 1398,
    "▁noth": 1399,
    "▁takes": 1400,
    "▁luck": 1401,
    "ooper": 1402,
    "▁gotten": 1403,
    "enty": 1404,
    "▁2-D": 1405,
    "▁chang": 1406,
    "▁whole": 1407,
    "▁class,": 1408,
    "▁fall": 1409,
    "▁which": 1410,
    "▁win": 1411,
    "▁Y-": 1412,
    "▁Y-Y": 1413,
    "▁rec": 1414,
    "▁wasn't": 1415,
    "▁Um": 1416,
    "▁school,": 1417,
    "▁spot": 1418,
    "▁now?": 1419,
    "▁school.": 1420,
    "▁fighting": 1421,
    "nce": 1422,
    "▁way,": 1423,
    "▁OA": 1424,
    "▁OAA": 1425,
    "hysical": 1426,
    "▁single": 1427,
    "▁way.": 1428,
    "▁question": 1429,
    "▁My": 1430,
    "▁bus": 1431,
    "▁wom": 1432,
    "▁wonder": 1433,
    "▁men": 1434,
    "▁Could": 1435,
    "▁Ver": 1436,
    "▁Very": 1437,
    "pect": 1438,
    "▁judg": 1439,
    "less": 1440,
    "▁ridicul": 1441,
    "▁trying": 1442,
    "ative": 1443,
    "▁already.": 1444,
    "▁fact": 1445,
    "▁free": 1446,
    "▁few": 1447,
    "ing?": 1448,
    "ress": 1449,
    "ont": 1450,
    "-A": 1451,
    "▁world": 1452,
    "▁group.": 1453,
    "▁penalty": 1454,
    "▁formed": 1455,
    "▁Ishiz": 1456,
    "▁Ishizaki": 1457,
    "▁supposed": 1458,
    "▁opp": 1459,
    "▁necess": 1460,
    "▁necessar": 1461,
    "airman": 1462,
    "▁worth": 1463,
    "▁doubt": 1464,
    "▁prepared": 1465,
    "▁Ayanokoji-senpai.": 1466,
    "▁Kaz": 1467,
    "▁Kazu": 1468,
    "▁Kazuom": 1469,
    "▁Kazuomi": 1470,
    "ta": 1471,
    "▁boy": 1472,
    "▁We'll": 1473,
    "den": 1474,
    "ug": 1475,
    "lve": 1476,
    "▁not.": 1477,
    "▁careful": 1478,
    "▁name": 1479,
    "▁Hey.": 1480,
    "▁partner.": 1481,
    "▁course.": 1482,
    "ew": 1483,
    "oy": 1484,
    "▁Suzune": 1485,
    "▁excell": 1486,
    "▁excellent": 1487,
    "▁extre": 1488,
    "▁extrem": 1489,
    "▁extremely": 1490,
    "▁yet.": 1491,
    "▁vi": 1492,
    "▁okay": 1493,
    "▁heard": 1494,
    "owing": 1495,
    "alm": 1496,
    "lect": 1497,
    "▁based": 1498,
    "▁beg": 1499,
    "▁agreem": 1500,
    "▁knife": 1501,
    "▁gl": 1502,
    "ember": 1503,
    "arm": 1504,
    "ile": 1505,
    "▁meant": 1506,
    "▁down,": 1507,
    "▁vie": 1508,
    "▁view": 1509,
    "▁appre": 1510,
    "▁appreci": 1511,
    "▁appreciate": 1512,
    "▁imag": 1513,
    "side": 1514,
    "▁favor": 1515,
    "▁first.": 1516,
    "▁rules": 1517,
    "▁tomorrow": 1518,
    "id.": 1519,
    "▁spec": 1520,
    "▁third": 1521,
    "▁receive": 1522,
    "▁determined": 1523,
    "▁pres": 1524,
    "ribut": 1525,
    "▁tabl": 1526,
    "▁Thes": 1527,
    "▁These": 1528,
    "▁che": 1529,
    "not": 1530,
    "▁gain": 1531,
    "▁group,": 1532,
    "icip": 1533,
    "▁lear": 1534,
    "ized": 1535,
    "les": 1536,
    "▁students.": 1537,
    "pped": 1538,
    "▁ple": 1539,
    "vanced": 1540,
    "▁Nurt": 1541,
    "▁Nurturing": 1542,
    "▁Spe": 1543,
    "▁Ex": 1544,
    "▁difficul": 1545,
    "▁personal": 1546,
    "ies.": 1547,
    "▁you!": 1548,
    "▁anything.": 1549,
    "▁contract": 1550,
    "▁much.": 1551,
    "cing": 1552,
    "▁Ko": 1553,
    "▁he'll": 1554,
    "▁handle": 1555,
    "▁beat": 1556,
    "y!": 1557,
    "▁mis": 1558,
    "▁crucial": 1559,
    "▁Our": 1560,
    "▁Where": 1561,
    "vo": 1562,
    "▁ready": 1563,
    "▁direct": 1564,
    "▁Good": 1565,
    "▁Nanase.": 1566,
    "▁many": 1567,
    "▁gets": 1568,
    "ate.": 1569,
    "mon": 1570,
    "▁stand": 1571,
    "▁cra": 1572,
    "ark": 1573,
    "▁year.": 1574,
    "▁inform": 1575,
    "▁heading": 1576,
    "▁means": 1577,
    "▁half": 1578,
    "▁strategy": 1579,
    "▁meth": 1580,
    "▁method": 1581,
    "ester": 1582,
    "esterday": 1583,
    "▁prior": 1584,
    "▁conf": 1585,
    "ident": 1586,
    "▁Kiriy": 1587,
    "▁Kiriyam": 1588,
    "ject": 1589,
    "▁complet": 1590,
    "▁Though": 1591,
    "alk": 1592,
    "▁brother": 1593,
    "▁looking": 1594,
    "▁refuse": 1595,
    "▁Ab": 1596,
    "▁self": 1597,
    "▁Sure": 1598,
    "▁interested": 1599,
    "▁lif": 1600,
    "▁Maybe": 1601,
    "▁busin": 1602,
    "▁certainly": 1603,
    "▁forward.": 1604,
    "▁Sorry,": 1605,
    "▁True.": 1606,
    "▁test,": 1607,
    "▁expulsion": 1608,
    "▁prot": 1609,
    "▁protect": 1610,
    "▁Huh?": 1611,
    "▁concer": 1612,
    "▁concern": 1613,
    "▁Un": 1614,
    "▁bring": 1615,
    "▁Part": 1616,
    "-B": 1617,
    "▁See": 1618,
    "ition.": 1619,
    "▁left": 1620,
    "▁hate": 1621,
    "▁alway": 1622,
    "▁me!": 1623,
    "▁3": 1624,
    "▁test?": 1625,
    "▁Like": 1626,
    "▁eff": 1627,
    "▁Tsubas": 1628,
    "▁lower": 1629,
    "▁penalty.": 1630,
    "▁contact": 1631,
    "pri": 1632,
    "itud": 1633,
    "▁apart": 1634,
    "▁Bec": 1635,
    "▁Because": 1636,
    "▁suppose.": 1637,
    "▁Wouldn't": 1638,
    "selve": 1639,
    "▁sorry.": 1640,
    "▁expulsion.": 1641,
    "▁Okay": 1642,
    "-ch": 1643,
    "i.": 1644,
    "▁cooking": 1645,
    "0%": 1646,
    "▁Ayanokoji-kun.": 1647,
    "▁consider": 1648,
    "▁turn": 1649,
    "▁instead": 1650,
    "▁second-years": 1651,
    "▁Rik": 1652,
    "▁Riku": 1653,
    "-kun?": 1654,
    "▁mad": 1655,
    "▁knew": 1656,
    "▁y'": 1657,
    "▁y'k": 1658,
    "▁y'know": 1659,
    "▁so.": 1660,
    "▁Tak": 1661,
    "▁interact": 1662,
    "pr": 1663,
    "▁likely": 1664,
    "▁attem": 1665,
    "▁attempt": 1666,
    "▁money": 1667,
    "▁game.": 1668,
    "00,000": 1669,
    "▁apol": 1670,
    "▁apolog": 1671,
    "▁stup": 1672,
    "▁ben": 1673,
    "▁foll": 1674,
    "▁power": 1675,
    "▁leave": 1676,
    "lud": 1677,
    "▁worri": 1678,
    "▁scores": 1679,
    "valuation": 1680,
    "▁Think": 1681,
    "▁repres": 1682,
    "▁feels": 1683,
    "▁cho": 1684,
    "▁Sakayanagi-san": 1685,
    "-p": 1686,
    "▁realize": 1687,
    "▁stab": 1688,
    "ale": 1689,
    "▁remember": 1690,
    "▁couldn't": 1691,
    "▁Does": 1692,
    "▁exam,": 1693,
    "▁Looks": 1694,
    "▁Com": 1695,
    "▁cells": 1696,
    "▁specif": 1697,
    "▁within": 1698,
    "▁rand": 1699,
    "▁random": 1700,
    "▁bon": 1701,
    "▁point.": 1702,
    "▁point,": 1703,
    "▁dist": 1704,
    "▁determine": 1705,
    "mer": 1706,
    "ency": 1707,
    "▁cas": 1708,
    "▁case,": 1709,
    "▁check": 1710,
    "▁cannot": 1711,
    "atur": 1712,
    "▁exch": 1713,
    "▁Now,": 1714,
    "▁island.": 1715,
    "▁Act": 1716,
    "▁Acting": 1717,
    "▁main": 1718,
    "▁acr": 1719,
    "▁across": 1720,
    "▁ca": 1721,
    "uff": 1722,
    "▁dropped": 1723,
    "▁Advanced": 1724,
    "▁Special": 1725,
    "ic,": 1726,
    "a,": 1727,
    "▁everyone": 1728,
    "uh": 1729,
    "▁need.": 1730,
    "▁either": 1731,
    "▁advice": 1732,
    "oor": 1733,
    "▁Koen": 1734,
    "▁Koenji": 1735,
    "▁aim": 1736,
    "▁Bes": 1737,
    "▁Besid": 1738,
    "▁Besides,": 1739,
    "▁late": 1740,
    "▁rest": 1741,
    "▁Or": 1742,
    "▁something?": 1743,
    "▁mot": 1744,
    "▁least.": 1745,
    "▁else,": 1746,
    "▁cooper": 1747,
    "▁Take": 1748,
    "▁avo": 1749,
    "▁decided": 1750,
    "cuse": 1751,
    "▁dead": 1752,
    "▁hur": 1753,
    "ry.": 1754,
    "▁allowed": 1755,
    "▁plenty": 1756,
    "▁D.": 1757,
    "▁ack": 1758,
    "▁acknow": 1759,
    "▁acknowled": 1760,
    "▁acknowledge": 1761,
    "▁myself.": 1762,
    "▁A.": 1763,
    "▁Y-You": 1764,
    "unn": 1765,
    "▁did.": 1766,
    "▁they'd": 1767,
    "▁again.": 1768,
    "▁is,": 1769,
    "▁we've": 1770,
    "wh": 1771,
    "▁yesterday": 1772,
    "▁room": 1773,
    "▁result": 1774,
    "▁confident": 1775,
    "▁appe": 1776,
    "▁her.": 1777,
    "▁done": 1778,
    "▁thinking": 1779,
    "▁lost": 1780,
    "▁bat": 1781,
    "▁battle": 1782,
    "▁level": 1783,
    "er?": 1784,
    "ere.": 1785,
    "▁saw": 1786,
    "ng": 1787,
    "▁talent": 1788,
    "▁position": 1789,
    "▁aff": 1790,
    "-senpai.": 1791,
    "▁coll": 1792,
    "pite": 1793,
    "▁dep": 1794,
    "▁who's": 1795,
    "▁Man": 1796,
    "▁measure": 1797,
    "▁student.": 1798,
    "▁Oh?": 1799,
    "▁Since": 1800,
    "▁trouble": 1801,
    "▁approach.": 1802,
    "▁where": 1803,
    "▁classes.": 1804,
    "▁resp": 1805,
    "▁answer": 1806,
    "▁You'd": 1807,
    "▁What?": 1808,
    "▁require": 1809,
    "way.": 1810,
    "▁list": 1811,
    "▁this?": 1812,
    "▁ign": 1813,
    "mit": 1814,
    "▁sign": 1815,
    "▁mill": 1816,
    "▁million.": 1817,
    "▁Ju": 1818,
    "▁By": 1819,
    "alve": 1820,
    "▁coming": 1821,
    "ork": 1822,
    "▁You'll": 1823,
    "▁risk": 1824,
    "▁everyth": 1825,
    "▁alone,": 1826,
    "▁giv": 1827,
    "▁giving": 1828,
    "▁sol": 1829,
    "▁request": 1830,
    "▁effort": 1831,
    "▁Tsubasa": 1832,
    "ned": 1833,
    "ild": 1834,
    "▁relation": 1835,
    "▁relationship": 1836,
    "ield": 1837,
    "▁Hosen-kun.": 1838,
    "▁negotiate": 1839,
    "▁kill": 1840,
    "▁Apri": 1841,
    "▁April": 1842,
    "▁study": 1843,
    "▁side": 1844,
    "riend": 1845,
    "▁easily": 1846,
    "▁conv": 1847,
    "ortun": 1848,
    "▁together.": 1849,
    "▁question.": 1850,
    "▁rating": 1851,
    "▁C,": 1852,
    "ount": 1853,
    "es?": 1854,
    "▁Still,": 1855,
    "vious": 1856,
    "▁on.": 1857,
    "▁Ut": 1858,
    "▁Utomiya": 1859,
    "▁curious": 1860,
    "▁go,": 1861,
    "▁Hir": 1862,
    "▁Hirata": 1863,
    "▁but...": 1864,
    "▁hon": 1865,
    "▁mean,": 1866,
    "-san?": 1867,
    "▁Hosen.": 1868,
    "▁Hell": 1869,
    "▁y'know?": 1870,
    "head": 1871,
    "▁stre": 1872,
    "▁Will": 1873,
    "idd": 1874,
    "▁past": 1875,
    "▁surpr": 1876,
    "agg": 1877,
    "▁O-": 1878,
    "▁O-O": 1879,
    "▁Right?": 1880,
    "▁words,": 1881,
    "▁academic": 1882,
    "▁comes": 1883,
    "▁Suzune.": 1884,
    "ards": 1885,
    "▁Ple": 1886,
    "▁Please": 1887,
    "▁curre": 1888,
    "▁current": 1889,
    "▁day.": 1890,
    "▁along": 1891,
    "▁him.": 1892,
    "▁viol": 1893,
    "▁violence": 1894,
    "▁imagine": 1895,
    "▁pot": 1896,
    "▁potential": 1897,
    "▁cut": 1898,
    "▁brand": 1899,
    "▁nice": 1900,
    "▁gener": 1901,
    "▁sus": 1902,
    "▁Tell": 1903,
    "▁following": 1904,
    "▁priv": 1905,
    "▁up?": 1906,
    "▁else.": 1907,
    "▁A,": 1908,
    "▁thr": 1909,
    "▁disad": 1910,
    "▁disadv": 1911,
    "▁disadvant": 1912,
    "▁mom": 1913,
    "▁hiding": 1914,
    "cha.": 1915,
    "▁live": 1916,
    "fici": 1917,
    "▁includ": 1918,
    "▁begin": 1919,
    "▁represent": 1920,
    "▁happy": 1921,
    "ives": 1922,
    "▁intention": 1923,
    "▁regard": 1924,
    "▁Tw": 1925,
    "-t": 1926,
    "▁team": 1927,
    "▁now!": 1928,
    "der": 1929,
    "ash": 1930,
    "▁upperclassmen": 1931,
    "▁maybe": 1932,
    "▁stat": 1933,
    "▁20-": 1934,
    "▁20-m": 1935,
    "▁20-million": 1936,
    "▁equals.": 1937,
    "▁unable": 1938,
    "▁million": 1939,
    "▁crush": 1940,
    "▁war": 1941,
    "▁used": 1942,
    "▁heal": 1943,
    "▁heart": 1944,
    "▁toward": 1945,
    "▁things.": 1946,
    "▁outside": 1947,
    "▁announce": 1948,
    "▁wee": 1949,
    "▁week": 1950,
    "imin": 1951,
    "ated,": 1952,
    "oring": 1953,
    "agon": 1954,
    "ict": 1955,
    "rive": 1956,
    "▁arri": 1957,
    "▁tool": 1958,
    "▁award": 1959,
    "▁remain": 1960,
    "▁contin": 1961,
    "▁starting": 1962,
    "▁z": 1963,
    "▁teach": 1964,
    "▁exchange": 1965,
    "▁areas": 1966,
    "▁sw": 1967,
    "▁table.": 1968,
    "▁particip": 1969,
    "▁food": 1970,
    "▁Group": 1971,
    "ech": 1972,
    "▁role": 1973,
    "ance.": 1974,
    "▁lack": 1975,
    "▁impossible": 1976,
    "▁prevent": 1977,
    "▁course,": 1978,
    "▁cir": 1979,
    "▁circ": 1980,
    "▁circum": 1981,
    "▁circumst": 1982,
    "▁circumstanc": 1983,
    "its": 1984,
    "▁Island": 1985,
    "-Wh": 1986,
    "▁difficult": 1987,
    "uh?!": 1988,
    "▁night": 1989,
    "▁Norm": 1990,
    "▁relax": 1991,
    "ime": 1992,
    "▁worry": 1993,
    "iven": 1994,
    "▁stam": 1995,
    "▁stamin": 1996,
    "▁poor": 1997,
    "▁strategy.": 1998
  }
}